unsigned char g_quantized_model[] = {
  0x1c, 0x00, 0x00, 0x00, 0x54, 0x46, 0x4c, 0x33, 0x14, 0x00, 0x20, 0x00,
  0x1c, 0x00, 0x18, 0x00, 0x14, 0x00, 0x10, 0x00, 0x0c, 0x00, 0x00, 0x00,
  0x08, 0x00, 0x04, 0x00, 0x14, 0x00, 0x00, 0x00, 0x1c, 0x00, 0x00, 0x00,
  0x98, 0x00, 0x00, 0x00, 0xf0, 0x00, 0x00, 0x00, 0xe8, 0x11, 0x00, 0x00,
  0xf8, 0x11, 0x00, 0x00, 0x54, 0x22, 0x00, 0x00, 0x03, 0x00, 0x00, 0x00,
  0x01, 0x00, 0x00, 0x00, 0x10, 0x00, 0x00, 0x00, 0x00, 0x00, 0x0a, 0x00,
  0x10, 0x00, 0x0c, 0x00, 0x08, 0x00, 0x04, 0x00, 0x0a, 0x00, 0x00, 0x00,
  0x0c, 0x00, 0x00, 0x00, 0x1c, 0x00, 0x00, 0x00, 0x3c, 0x00, 0x00, 0x00,
  0x0f, 0x00, 0x00, 0x00, 0x73, 0x65, 0x72, 0x76, 0x69, 0x6e, 0x67, 0x5f,
  0x64, 0x65, 0x66, 0x61, 0x75, 0x6c, 0x74, 0x00, 0x01, 0x00, 0x00, 0x00,
  0x04, 0x00, 0x00, 0x00, 0x90, 0xff, 0xff, 0xff, 0x0a, 0x00, 0x00, 0x00,
  0x04, 0x00, 0x00, 0x00, 0x08, 0x00, 0x00, 0x00, 0x6f, 0x75, 0x74, 0x70,
  0x75, 0x74, 0x5f, 0x30, 0x00, 0x00, 0x00, 0x00, 0x01, 0x00, 0x00, 0x00,
  0x04, 0x00, 0x00, 0x00, 0xfe, 0xed, 0xff, 0xff, 0x04, 0x00, 0x00, 0x00,
  0x0c, 0x00, 0x00, 0x00, 0x6b, 0x65, 0x72, 0x61, 0x73, 0x5f, 0x74, 0x65,
  0x6e, 0x73, 0x6f, 0x72, 0x00, 0x00, 0x00, 0x00, 0x02, 0x00, 0x00, 0x00,
  0x34, 0x00, 0x00, 0x00, 0x04, 0x00, 0x00, 0x00, 0xdc, 0xff, 0xff, 0xff,
  0x0d, 0x00, 0x00, 0x00, 0x04, 0x00, 0x00, 0x00, 0x13, 0x00, 0x00, 0x00,
  0x43, 0x4f, 0x4e, 0x56, 0x45, 0x52, 0x53, 0x49, 0x4f, 0x4e, 0x5f, 0x4d,
  0x45, 0x54, 0x41, 0x44, 0x41, 0x54, 0x41, 0x00, 0x08, 0x00, 0x0c, 0x00,
  0x08, 0x00, 0x04, 0x00, 0x08, 0x00, 0x00, 0x00, 0x0c, 0x00, 0x00, 0x00,
  0x04, 0x00, 0x00, 0x00, 0x13, 0x00, 0x00, 0x00, 0x6d, 0x69, 0x6e, 0x5f,
  0x72, 0x75, 0x6e, 0x74, 0x69, 0x6d, 0x65, 0x5f, 0x76, 0x65, 0x72, 0x73,
  0x69, 0x6f, 0x6e, 0x00, 0x0e, 0x00, 0x00, 0x00, 0xf4, 0x10, 0x00, 0x00,
  0xec, 0x10, 0x00, 0x00, 0xd4, 0x10, 0x00, 0x00, 0x84, 0x10, 0x00, 0x00,
  0xf4, 0x0f, 0x00, 0x00, 0xe4, 0x07, 0x00, 0x00, 0xd4, 0x06, 0x00, 0x00,
  0xc4, 0x00, 0x00, 0x00, 0xbc, 0x00, 0x00, 0x00, 0xb4, 0x00, 0x00, 0x00,
  0xac, 0x00, 0x00, 0x00, 0xa4, 0x00, 0x00, 0x00, 0x84, 0x00, 0x00, 0x00,
  0x04, 0x00, 0x00, 0x00, 0xb2, 0xee, 0xff, 0xff, 0x04, 0x00, 0x00, 0x00,
  0x70, 0x00, 0x00, 0x00, 0x0c, 0x00, 0x00, 0x00, 0x08, 0x00, 0x0e, 0x00,
  0x08, 0x00, 0x04, 0x00, 0x08, 0x00, 0x00, 0x00, 0x10, 0x00, 0x00, 0x00,
  0x28, 0x00, 0x00, 0x00, 0x00, 0x00, 0x06, 0x00, 0x08, 0x00, 0x04, 0x00,
  0x06, 0x00, 0x00, 0x00, 0x04, 0x00, 0x00, 0x00, 0x01, 0x00, 0x00, 0x00,
  0xeb, 0x03, 0x00, 0x00, 0x0c, 0x00, 0x1c, 0x00, 0x18, 0x00, 0x14, 0x00,
  0x10, 0x00, 0x04, 0x00, 0x0c, 0x00, 0x00, 0x00, 0xe2, 0x36, 0xb6, 0xc5,
  0x24, 0xfd, 0x89, 0xcc, 0x00, 0x00, 0x00, 0x00, 0x02, 0x00, 0x00, 0x00,
  0x02, 0x00, 0x00, 0x00, 0x04, 0x00, 0x00, 0x00, 0x12, 0x00, 0x00, 0x00,
  0x32, 0x2e, 0x32, 0x31, 0x2e, 0x30, 0x2d, 0x64, 0x65, 0x76, 0x32, 0x30,
  0x32, 0x35, 0x31, 0x31, 0x32, 0x31, 0x00, 0x00, 0x2e, 0xef, 0xff, 0xff,
  0x04, 0x00, 0x00, 0x00, 0x10, 0x00, 0x00, 0x00, 0x31, 0x2e, 0x31, 0x34,
  0x2e, 0x30, 0x00, 0x00, 0x00, 0x00, 0x00, 0x00, 0x00, 0x00, 0x00, 0x00,
  0x18, 0xef, 0xff, 0xff, 0x1c, 0xef, 0xff, 0xff, 0x20, 0xef, 0xff, 0xff,
  0x24, 0xef, 0xff, 0xff, 0x5a, 0xef, 0xff, 0xff, 0x04, 0x00, 0x00, 0x00,
  0x00, 0x06, 0x00, 0x00, 0xf2, 0xf9, 0x44, 0x19, 0xaf, 0x2a, 0x47, 0x1b,
  0x50, 0x7f, 0x32, 0xd6, 0x92, 0xbf, 0x26, 0x38, 0x1e, 0x78, 0x5c, 0xe6,
  0x98, 0x8c, 0xc2, 0xbc, 0xed, 0xbc, 0xb8, 0xc5, 0xcf, 0x3f, 0x56, 0xbc,
  0xca, 0x30, 0x03, 0x7f, 0x3b, 0x34, 0x53, 0xdc, 0xd0, 0xef, 0x0b, 0x3e,
  0xe8, 0x0b, 0x50, 0x1f, 0xcd, 0xc4, 0xfd, 0x7e, 0x67, 0x1b, 0x0e, 0x9e,
  0x2f, 0x35, 0xc1, 0x2c, 0x22, 0x40, 0x81, 0x1d, 0x2d, 0xe9, 0x16, 0xc7,
  0xea, 0xf9, 0x31, 0xec, 0xd2, 0x23, 0xcd, 0x47, 0xf9, 0x34, 0x01, 0x25,
  0xa0, 0xcb, 0x53, 0x1b, 0xbd, 0xd7, 0x2d, 0x31, 0x01, 0xf1, 0x0f, 0x44,
  0xac, 0x4f, 0x10, 0x81, 0xc3, 0x12, 0xce, 0x9f, 0xf6, 0x6a, 0x32, 0x34,
  0x81, 0x19, 0x90, 0xc3, 0x6d, 0xdf, 0xb8, 0x92, 0x7e, 0xbd, 0x35, 0x0f,
  0xf1, 0xd7, 0xc5, 0x32, 0xd6, 0xfb, 0xcb, 0xed, 0x2e, 0x01, 0x81, 0xdd,
  0x33, 0xf6, 0x30, 0x36, 0xe7, 0xe7, 0x29, 0x3d, 0x26, 0xee, 0x3b, 0x60,
  0xe1, 0x14, 0x5d, 0xef, 0x81, 0xca, 0xbb, 0x9b, 0xc7, 0xbf, 0x3b, 0x74,
  0x38, 0x5e, 0x1a, 0xa4, 0x10, 0x3d, 0x45, 0x07, 0x1a, 0xf3, 0x4c, 0xf8,
  0xfa, 0xb6, 0x39, 0xc4, 0xf1, 0x1d, 0xf2, 0x4f, 0x17, 0x7d, 0xfd, 0xc1,
  0x28, 0xd3, 0x7f, 0x45, 0x38, 0xee, 0x00, 0x30, 0xbd, 0x18, 0xdc, 0xd2,
  0xdc, 0x0e, 0x1e, 0x1a, 0x5f, 0x8b, 0x7f, 0x3d, 0x61, 0x27, 0x92, 0x28,
  0x83, 0xb4, 0x1e, 0x30, 0x1b, 0xdd, 0xd6, 0x59, 0x6d, 0xf8, 0xed, 0x47,
  0x98, 0xc8, 0xfe, 0xf9, 0xe6, 0x8b, 0xe8, 0xe4, 0xfe, 0x51, 0x07, 0x0f,
  0xe3, 0x03, 0xe6, 0x1a, 0x37, 0xe5, 0xe5, 0x35, 0xc3, 0x2a, 0xc8, 0x22,
  0x65, 0xfd, 0xc4, 0x81, 0x20, 0xf9, 0xf9, 0x40, 0xe3, 0xf2, 0x9e, 0x81,
  0xd7, 0xb6, 0xee, 0x72, 0x04, 0x33, 0x26, 0xf6, 0x1f, 0x86, 0x45, 0x1d,
  0x1b, 0x12, 0x25, 0xbe, 0x02, 0x54, 0x76, 0x81, 0x19, 0x76, 0x0d, 0x24,
  0x0a, 0x3f, 0x0c, 0x0b, 0xbd, 0x44, 0xdd, 0x38, 0x0f, 0x3f, 0x03, 0x0f,
  0x06, 0xf7, 0x52, 0x1c, 0xbc, 0x79, 0x32, 0x2c, 0x91, 0x05, 0x7f, 0x41,
  0xb4, 0xe3, 0x0a, 0x2c, 0xdf, 0xde, 0xd8, 0xee, 0xb7, 0x10, 0x0e, 0xc9,
  0xfc, 0xeb, 0x4a, 0x39, 0x81, 0xb3, 0xc1, 0xa7, 0xdd, 0x24, 0x8f, 0xcf,
  0xfe, 0xf3, 0xc3, 0x10, 0x22, 0xf7, 0x5c, 0xfa, 0xee, 0x7b, 0x3b, 0x06,
  0x28, 0x16, 0xbc, 0x06, 0x1a, 0xe0, 0xfd, 0x1c, 0x6c, 0x9c, 0x20, 0xd3,
  0xbb, 0xd3, 0xbb, 0xb4, 0xba, 0xdf, 0x7f, 0x12, 0xe4, 0x2a, 0x20, 0x7d,
  0x09, 0xe3, 0x36, 0xd0, 0x1f, 0x03, 0x38, 0xd4, 0xdb, 0x0d, 0x6f, 0x06,
  0x2b, 0xff, 0xb3, 0xab, 0xdd, 0x94, 0x9f, 0x14, 0xf4, 0xde, 0x3f, 0x4e,
  0x77, 0x7f, 0x59, 0x5f, 0x2e, 0x38, 0x06, 0x25, 0xc5, 0x7f, 0xa0, 0xa5,
  0x37, 0xf2, 0x3f, 0x35, 0xaa, 0xdc, 0x6b, 0x22, 0xf4, 0x2a, 0xc3, 0x3d,
  0x13, 0x4d, 0x57, 0xe8, 0x0c, 0x42, 0xe1, 0x36, 0x4a, 0xa8, 0x29, 0x7f,
  0x29, 0x18, 0x16, 0x2e, 0xc9, 0x9d, 0xb7, 0xdd, 0x29, 0xfa, 0x51, 0xf8,
  0xd1, 0x51, 0x40, 0x1f, 0x40, 0x3d, 0x0b, 0x20, 0xf5, 0xd8, 0xd0, 0xdb,
  0x36, 0xde, 0xf4, 0x1e, 0x47, 0xbd, 0x15, 0xc4, 0x41, 0xc1, 0x99, 0x08,
  0x22, 0x7f, 0xd0, 0xc1, 0xa9, 0x54, 0x50, 0x95, 0xfc, 0x00, 0xc3, 0x68,
  0xe8, 0x42, 0x7f, 0x4e, 0x68, 0x23, 0xe2, 0x36, 0x46, 0x68, 0xd1, 0x13,
  0x1a, 0xbf, 0x1c, 0xcd, 0xfc, 0x0f, 0xbe, 0xb5, 0x38, 0x9d, 0x29, 0x11,
  0x90, 0xb4, 0x7f, 0x7c, 0x92, 0x26, 0xe3, 0x27, 0x43, 0x46, 0x3e, 0xeb,
  0xd6, 0x1e, 0xa8, 0x2c, 0x78, 0x5b, 0xdf, 0xe6, 0x0f, 0xee, 0x19, 0xb7,
  0xe5, 0x09, 0x2a, 0x7d, 0xc7, 0xd3, 0x14, 0x91, 0xbb, 0x7d, 0xc6, 0x15,
  0x27, 0x21, 0xf7, 0x81, 0xcd, 0x8f, 0xba, 0x9e, 0xf1, 0xdb, 0x87, 0xb3,
  0x7f, 0x0c, 0x59, 0xbb, 0x91, 0xed, 0xab, 0x0a, 0x1b, 0xcc, 0xdc, 0x5d,
  0xc3, 0x77, 0x1e, 0x05, 0x81, 0x07, 0xe4, 0xae, 0xb2, 0xc6, 0x5b, 0xe8,
  0xe0, 0x19, 0xfb, 0x00, 0xf5, 0x39, 0xf7, 0xd9, 0x05, 0x28, 0x27, 0x19,
  0x58, 0x28, 0x3d, 0x4a, 0x00, 0x18, 0x21, 0x09, 0xff, 0xe8, 0x95, 0x91,
  0xb1, 0xf3, 0x1f, 0x51, 0x21, 0xc1, 0xb8, 0xf2, 0x81, 0xa9, 0x97, 0xe5,
  0x00, 0x67, 0x92, 0x03, 0x2c, 0xe0, 0x02, 0xbc, 0x2e, 0x33, 0xc4, 0x3f,
  0x45, 0xc6, 0xd5, 0x08, 0xac, 0x5c, 0x00, 0x41, 0x3c, 0x17, 0xfb, 0xd4,
  0xcb, 0xfb, 0x81, 0xb2, 0x2d, 0x45, 0xac, 0x99, 0x19, 0x32, 0xb5, 0x38,
  0x5b, 0xa0, 0x1c, 0xb5, 0x61, 0x55, 0x2d, 0xc0, 0x88, 0x90, 0xc5, 0x16,
  0xbd, 0x7b, 0x64, 0x81, 0xd7, 0x98, 0x0a, 0xe5, 0x48, 0x47, 0x31, 0xb5,
  0x3e, 0x54, 0xfa, 0x8d, 0x3f, 0xe8, 0x81, 0x4e, 0xc3, 0xce, 0xbb, 0xc5,
  0xfe, 0xdb, 0x29, 0xff, 0xb8, 0x13, 0xd0, 0x0e, 0xa6, 0x3a, 0xca, 0x22,
  0xd7, 0xc9, 0xb1, 0x99, 0xce, 0xb2, 0x51, 0x64, 0x19, 0x7f, 0x16, 0x01,
  0x5f, 0x08, 0x1b, 0x0b, 0x0e, 0xe2, 0xf8, 0x09, 0x4f, 0x7f, 0xb1, 0xda,
  0x3a, 0xba, 0xf7, 0xf2, 0xe0, 0x39, 0xb3, 0xca, 0x39, 0x03, 0xdc, 0x53,
  0xf0, 0x0e, 0xc3, 0x1d, 0x7d, 0xfd, 0x59, 0x8e, 0xf5, 0x6b, 0xbd, 0xef,
  0x04, 0xda, 0x7f, 0xa4, 0xa2, 0x4a, 0xc8, 0x64, 0x02, 0x23, 0xb2, 0xa0,
  0xaf, 0xb1, 0xd4, 0x45, 0x1e, 0xd6, 0x46, 0xfd, 0x2c, 0xa5, 0x56, 0x49,
  0x81, 0x07, 0x0b, 0xfa, 0x61, 0xcb, 0xff, 0xe5, 0x15, 0x03, 0x30, 0xd9,
  0xdf, 0x08, 0x0f, 0xba, 0xf0, 0x1b, 0x0e, 0x1b, 0x52, 0x81, 0xf2, 0x30,
  0x06, 0x52, 0x0d, 0xca, 0x2a, 0x12, 0x26, 0x0e, 0xd8, 0x1f, 0xb6, 0xca,
  0xc8, 0xd6, 0xb9, 0xf0, 0xea, 0x1b, 0x06, 0x18, 0xe7, 0xed, 0xfd, 0x0b,
  0xed, 0xde, 0xbe, 0x7f, 0x0e, 0x30, 0xd7, 0x93, 0x60, 0xcf, 0xad, 0x2e,
  0x08, 0x02, 0xfd, 0x20, 0xc2, 0x35, 0xbe, 0x3b, 0x51, 0x81, 0xee, 0x1b,
  0xe8, 0x1c, 0xf6, 0xe1, 0xd2, 0x1b, 0xbc, 0x07, 0xbe, 0xc2, 0xd9, 0x1f,
  0xab, 0x1c, 0x1d, 0x2e, 0x6f, 0xf5, 0xce, 0xb5, 0x56, 0xb9, 0x9a, 0x18,
  0xe8, 0x69, 0x01, 0x05, 0xab, 0x17, 0x15, 0x07, 0xba, 0xde, 0xef, 0x81,
  0x14, 0xa7, 0x7c, 0x40, 0xf8, 0x21, 0x7f, 0xbe, 0x12, 0x1f, 0x5c, 0x05,
  0xf6, 0x17, 0x4b, 0xe9, 0xf3, 0x96, 0xe8, 0x14, 0x0b, 0x99, 0xe4, 0x4d,
  0xed, 0x17, 0x4a, 0x74, 0x2d, 0x2d, 0xb1, 0x0e, 0xfc, 0xb5, 0xb0, 0xb2,
  0xdd, 0x3f, 0xd1, 0xd8, 0xdd, 0x02, 0x56, 0xdf, 0x34, 0x81, 0x90, 0x98,
  0x42, 0x0c, 0xd8, 0x7b, 0x9b, 0xd9, 0xe9, 0x73, 0xc7, 0x81, 0x75, 0xf7,
  0x4d, 0x46, 0xe1, 0xea, 0x99, 0x2d, 0x40, 0xf4, 0x6f, 0xf6, 0x0d, 0x83,
  0x48, 0x08, 0x92, 0xbd, 0xfa, 0x36, 0x6c, 0x31, 0x45, 0x1a, 0xf0, 0xe0,
  0xd6, 0xc8, 0xc5, 0x60, 0x0a, 0x05, 0x62, 0x77, 0x7f, 0x4e, 0x4c, 0x23,
  0x0d, 0x9e, 0xe2, 0x19, 0x31, 0xd7, 0xac, 0xf7, 0xc3, 0xa8, 0x8f, 0x72,
  0xb7, 0xdc, 0x81, 0xeb, 0x04, 0x22, 0x5d, 0x22, 0x1c, 0xc3, 0xf1, 0xfd,
  0x3c, 0xc2, 0x3f, 0xed, 0x25, 0xb5, 0x38, 0xdd, 0xed, 0xf2, 0x38, 0xfc,
  0x31, 0xdb, 0xe8, 0x58, 0x1e, 0x34, 0x23, 0x5e, 0x09, 0xfe, 0x9c, 0x81,
  0xd8, 0x0c, 0xed, 0x57, 0x05, 0x50, 0x12, 0x16, 0x53, 0xc8, 0xe7, 0x56,
  0x4d, 0xe1, 0x81, 0xb9, 0xb2, 0x3b, 0x5f, 0x24, 0xeb, 0xf5, 0x55, 0x32,
  0xd0, 0x66, 0x0c, 0xfc, 0x47, 0x41, 0x8d, 0x69, 0x81, 0xf0, 0x90, 0x8f,
  0x2a, 0x16, 0x4a, 0x26, 0xef, 0xf7, 0x4b, 0x58, 0x15, 0x37, 0xe6, 0xf5,
  0xf2, 0x00, 0x08, 0x22, 0x4e, 0xe3, 0x08, 0x2d, 0x19, 0x07, 0x06, 0x0e,
  0x7f, 0x3f, 0xc0, 0xcc, 0xcd, 0x96, 0xa5, 0xfa, 0x14, 0x61, 0xb7, 0x70,
  0x4b, 0xde, 0x01, 0x5f, 0x36, 0x13, 0x16, 0x81, 0xdc, 0x49, 0x2e, 0xd7,
  0xc4, 0x1c, 0x8e, 0x32, 0xe8, 0xbd, 0x06, 0x8b, 0x71, 0xda, 0x2a, 0xbc,
  0xe7, 0x5c, 0xa4, 0x5f, 0xa6, 0x02, 0x26, 0x45, 0x1d, 0x26, 0x41, 0x0b,
  0x1c, 0x17, 0x66, 0x2c, 0x1f, 0x81, 0xf9, 0xf9, 0xd0, 0x3e, 0x05, 0x19,
  0xff, 0xad, 0x47, 0xdf, 0x37, 0x1a, 0x8e, 0x58, 0x02, 0xe7, 0x4d, 0x54,
  0xd8, 0x46, 0x3f, 0xf9, 0xe1, 0xe3, 0x05, 0xb6, 0x9a, 0xb5, 0xeb, 0x33,
  0x23, 0x52, 0xd7, 0x7f, 0xe0, 0x54, 0x81, 0x32, 0xe3, 0x20, 0xfc, 0xee,
  0x0a, 0xdb, 0xd4, 0x48, 0x21, 0x94, 0x2b, 0xde, 0x2b, 0xca, 0xbe, 0x98,
  0xf6, 0x6f, 0x39, 0xf5, 0x33, 0xeb, 0x05, 0xff, 0x3b, 0x02, 0xe0, 0x39,
  0xb5, 0x46, 0xed, 0xf6, 0x67, 0x39, 0x13, 0x03, 0x2c, 0xf7, 0xdb, 0x1e,
  0x31, 0x35, 0xc3, 0x81, 0xe9, 0xe8, 0xd8, 0x01, 0xfb, 0x08, 0x81, 0xf2,
  0x16, 0x03, 0x39, 0xd4, 0xe3, 0x2b, 0xcb, 0x1d, 0x10, 0x35, 0x1c, 0xea,
  0xb7, 0x14, 0xd5, 0xf9, 0x36, 0xe8, 0x2c, 0xf1, 0xf5, 0x47, 0xde, 0x99,
  0x14, 0x08, 0xb8, 0x9f, 0xdf, 0x9f, 0xd1, 0x0f, 0x3b, 0xce, 0x81, 0xef,
  0x0a, 0xc2, 0xc8, 0x41, 0xfb, 0x29, 0x29, 0x2a, 0xeb, 0xcc, 0xf0, 0x30,
  0xc4, 0xfb, 0x15, 0x5c, 0x30, 0xe0, 0xa9, 0xe3, 0xe2, 0x32, 0xc5, 0xe1,
  0x0d, 0x7f, 0xfc, 0x0a, 0x0b, 0xd0, 0xf8, 0x0f, 0xc4, 0xfe, 0xee, 0x1d,
  0xde, 0xe0, 0x31, 0x0d, 0x02, 0xdb, 0x91, 0xc0, 0x19, 0x09, 0x0c, 0x7f,
  0xff, 0xb8, 0xc7, 0x45, 0x17, 0x40, 0xfc, 0x01, 0x12, 0xd7, 0xf7, 0xf5,
  0xc7, 0xd2, 0x7f, 0x6b, 0x39, 0x25, 0x05, 0x3c, 0xa3, 0xfb, 0x09, 0xa9,
  0xe3, 0x3f, 0x12, 0xd5, 0x5a, 0x4d, 0x7f, 0xd1, 0xb5, 0xcc, 0x78, 0x98,
  0x73, 0x92, 0x69, 0x69, 0xd6, 0xf9, 0x02, 0x40, 0x50, 0xb5, 0x0e, 0xff,
  0x4e, 0x97, 0x7f, 0xfd, 0xd0, 0xf8, 0x0b, 0x4d, 0x3d, 0x01, 0xef, 0x34,
  0xd3, 0xf1, 0x39, 0xda, 0xd1, 0x02, 0x24, 0x15, 0x1f, 0x7f, 0x21, 0x08,
  0xd5, 0x1f, 0xab, 0xb9, 0x68, 0x89, 0x13, 0xba, 0x47, 0xe1, 0xef, 0x57,
  0xf9, 0x83, 0xfa, 0x8d, 0x5a, 0xbb, 0x54, 0x0d, 0x1a, 0x24, 0x81, 0x2b,
  0x94, 0x2b, 0x26, 0x7e, 0xa3, 0x1e, 0x5e, 0xc3, 0x56, 0x77, 0xfb, 0x08,
  0x7f, 0xb5, 0x40, 0x2f, 0xe0, 0x6c, 0x94, 0xf1, 0xed, 0x42, 0x0a, 0x03,
  0xe9, 0xf8, 0x24, 0xd4, 0xbf, 0xdd, 0xe5, 0x10, 0x5c, 0xc6, 0x4e, 0x13,
  0x98, 0xd8, 0xdc, 0xf2, 0x41, 0xe8, 0x47, 0x5e, 0x28, 0xf5, 0xf1, 0xcf,
  0x98, 0xa1, 0xc1, 0x81, 0xdd, 0x23, 0x95, 0x55, 0x7a, 0x4e, 0xe3, 0xcb,
  0xc4, 0xca, 0xe4, 0xeb, 0x3e, 0x2b, 0xdb, 0xff, 0xe5, 0xee, 0xf9, 0x05,
  0x7f, 0x4c, 0xa1, 0x3d, 0x22, 0x1e, 0xc8, 0x4e, 0x81, 0xf1, 0xe4, 0x22,
  0x7c, 0xc1, 0xe3, 0x6c, 0xe5, 0xb8, 0xe5, 0x49, 0x06, 0x4d, 0x00, 0xf9,
  0xfe, 0x18, 0xed, 0xe9, 0xfd, 0x45, 0xc2, 0x4f, 0x14, 0x49, 0x13, 0x06,
  0xeb, 0xbd, 0x8b, 0xad, 0x22, 0x35, 0x3d, 0x58, 0x97, 0xec, 0xe6, 0x0b,
  0x2d, 0x87, 0x01, 0x7f, 0xa5, 0xcb, 0x05, 0x29, 0x35, 0x0d, 0x29, 0x1c,
  0xd8, 0xd5, 0x36, 0xe2, 0xc5, 0x00, 0x1d, 0x7f, 0x0a, 0xe9, 0x45, 0x01,
  0xed, 0xd5, 0x17, 0xf9, 0x66, 0xf5, 0xff, 0xff, 0x04, 0x00, 0x00, 0x00,
  0x00, 0x01, 0x00, 0x00, 0x2d, 0x00, 0x00, 0x00, 0x59, 0x03, 0x00, 0x00,
  0x4d, 0x00, 0x00, 0x00, 0x30, 0xfe, 0xff, 0xff, 0xeb, 0xf8, 0xff, 0xff,
  0xf0, 0xf4, 0xff, 0xff, 0x7d, 0x0a, 0x00, 0x00, 0x1f, 0xfa, 0xff, 0xff,
  0x83, 0xf8, 0xff, 0xff, 0x07, 0xf8, 0xff, 0xff, 0x66, 0xff, 0xff, 0xff,
  0x8b, 0xfe, 0xff, 0xff, 0x68, 0x01, 0x00, 0x00, 0x5d, 0xfc, 0xff, 0xff,
  0x38, 0x02, 0x00, 0x00, 0x5b, 0x02, 0x00, 0x00, 0xc7, 0x04, 0x00, 0x00,
  0x90, 0x00, 0x00, 0x00, 0x38, 0xfe, 0xff, 0xff, 0x52, 0xf6, 0xff, 0xff,
  0x53, 0x08, 0x00, 0x00, 0x90, 0xfd, 0xff, 0xff, 0xc6, 0xf8, 0xff, 0xff,
  0xa3, 0xfa, 0xff, 0xff, 0x1e, 0xfb, 0xff, 0xff, 0x41, 0xf9, 0xff, 0xff,
  0x67, 0xff, 0xff, 0xff, 0x30, 0xf4, 0xff, 0xff, 0x80, 0x00, 0x00, 0x00,
  0xcc, 0xff, 0xff, 0xff, 0x85, 0xfe, 0xff, 0xff, 0xf7, 0xfc, 0xff, 0xff,
  0xee, 0xfc, 0xff, 0xff, 0x2f, 0xfc, 0xff, 0xff, 0xa7, 0xff, 0xff, 0xff,
  0xfd, 0xfc, 0xff, 0xff, 0xf1, 0xfd, 0xff, 0xff, 0x08, 0x03, 0x00, 0x00,
  0x60, 0xff, 0xff, 0xff, 0x17, 0xfc, 0xff, 0xff, 0x24, 0xfc, 0xff, 0xff,
  0x99, 0xfc, 0xff, 0xff, 0xd2, 0x01, 0x00, 0x00, 0xc8, 0xfd, 0xff, 0xff,
  0x03, 0xf6, 0xff, 0xff, 0x37, 0xfc, 0xff, 0xff, 0x96, 0x03, 0x00, 0x00,
  0xcf, 0xf8, 0xff, 0xff, 0x69, 0x01, 0x00, 0x00, 0x32, 0xfd, 0xff, 0xff,
  0xa6, 0x02, 0x00, 0x00, 0x15, 0xfd, 0xff, 0xff, 0x95, 0x02, 0x00, 0x00,
  0x3a, 0xfd, 0xff, 0xff, 0x06, 0xfc, 0xff, 0xff, 0x28, 0x03, 0x00, 0x00,
  0x39, 0x01, 0x00, 0x00, 0x68, 0x02, 0x00, 0x00, 0x44, 0xf9, 0xff, 0xff,
  0x89, 0x02, 0x00, 0x00, 0x62, 0xfe, 0xff, 0xff, 0x3c, 0x01, 0x00, 0x00,
  0x1c, 0xfa, 0xff, 0xff, 0xc6, 0x06, 0x00, 0x00, 0x72, 0xf6, 0xff, 0xff,
  0x04, 0x00, 0x00, 0x00, 0x00, 0x08, 0x00, 0x00, 0xfb, 0xe9, 0xe7, 0xc4,
  0xdf, 0xa9, 0x26, 0x33, 0x27, 0x9b, 0x1b, 0xcb, 0xcf, 0xf2, 0x36, 0x2a,
  0x22, 0xff, 0xd3, 0x3f, 0x17, 0x06, 0xca, 0xfe, 0x1e, 0xdd, 0x1c, 0x5a,
  0xf3, 0xfa, 0xda, 0x5c, 0x1e, 0x27, 0xe4, 0xf0, 0x12, 0xc8, 0x61, 0x1e,
  0x32, 0xdd, 0x29, 0xda, 0x2d, 0x17, 0x18, 0xfd, 0x86, 0x3f, 0xf6, 0x16,
  0x2e, 0x81, 0x42, 0xea, 0xeb, 0xce, 0x2e, 0x32, 0xb4, 0x4f, 0x3d, 0xe6,
  0x19, 0x42, 0x4e, 0x02, 0x45, 0xe3, 0xc5, 0x2c, 0xfa, 0x42, 0x2c, 0x0a,
  0xe8, 0x10, 0xc2, 0xf0, 0x03, 0xf5, 0xf4, 0x9b, 0x4e, 0xe3, 0xc3, 0x58,
  0x15, 0x61, 0xd1, 0xec, 0xca, 0x4a, 0x5a, 0xc3, 0xc1, 0x79, 0xa3, 0x4a,
  0x0e, 0x13, 0x60, 0xf9, 0x26, 0xf0, 0xb5, 0x3a, 0xb6, 0x51, 0xca, 0xc9,
  0x49, 0xd2, 0xca, 0x29, 0x1a, 0xb7, 0xb8, 0xce, 0x81, 0xa5, 0x5a, 0xaf,
  0x31, 0xd9, 0xdc, 0xe2, 0x2e, 0x52, 0xed, 0xe8, 0x10, 0x38, 0x3b, 0xe9,
  0xf4, 0xe3, 0xc4, 0xed, 0xd8, 0x3c, 0x2f, 0x31, 0x37, 0x4e, 0xe8, 0x0f,
  0xd1, 0x33, 0x66, 0x31, 0x1e, 0x5e, 0x40, 0xde, 0x5a, 0xcc, 0xca, 0xe6,
  0x32, 0x81, 0x3e, 0xb2, 0x10, 0x12, 0xc1, 0x31, 0x43, 0xdd, 0x54, 0xe0,
  0x46, 0xf5, 0xdb, 0x4b, 0x4a, 0x1b, 0xb6, 0x02, 0x12, 0xfc, 0x9a, 0xe8,
  0x02, 0x31, 0x15, 0x22, 0xc1, 0xec, 0x5e, 0x0a, 0x28, 0xe7, 0xc3, 0xc9,
  0x2f, 0xec, 0xd7, 0x48, 0x27, 0xb8, 0xe3, 0xe4, 0x0b, 0x81, 0xed, 0x02,
  0x08, 0xdf, 0x18, 0x61, 0x2c, 0x34, 0x20, 0xda, 0x0b, 0x19, 0x15, 0x01,
  0xe5, 0x23, 0xe3, 0x01, 0xe4, 0xb1, 0xeb, 0xf2, 0xce, 0x1a, 0x25, 0xe0,
  0x4c, 0x3d, 0x26, 0x35, 0xe8, 0xef, 0x34, 0xf5, 0xc9, 0xf2, 0x33, 0x2b,
  0xea, 0x97, 0x2a, 0x28, 0xf3, 0x36, 0x00, 0xd3, 0x02, 0xf3, 0xe1, 0x66,
  0xd4, 0x04, 0xf8, 0x02, 0x7e, 0x0a, 0x4a, 0x0e, 0xcf, 0xf8, 0x52, 0x82,
  0xfe, 0xd7, 0x2b, 0x5c, 0x2c, 0xfe, 0xff, 0x92, 0xdd, 0xde, 0x42, 0xe7,
  0x55, 0x0f, 0x69, 0xb0, 0xf8, 0xef, 0xaa, 0xdc, 0xc6, 0x32, 0xc9, 0xbe,
  0xe7, 0x2b, 0x72, 0x15, 0x34, 0x20, 0xc0, 0x07, 0x56, 0x1b, 0x8e, 0xf0,
  0x1c, 0xf3, 0xf4, 0xe1, 0x2e, 0x45, 0x4a, 0xe9, 0x3f, 0xda, 0x17, 0x1c,
  0xcb, 0xaf, 0x6d, 0x7f, 0x96, 0x48, 0x00, 0x62, 0xea, 0x4c, 0xf6, 0x28,
  0xe5, 0x58, 0x0d, 0xe0, 0x5b, 0x3e, 0x2e, 0xf2, 0xf6, 0x9c, 0xe9, 0xd7,
  0x48, 0xf9, 0x06, 0x30, 0xdc, 0xdb, 0x6d, 0x16, 0x3c, 0xb7, 0xda, 0xf1,
  0x81, 0x24, 0xd2, 0x81, 0xd4, 0xca, 0x21, 0xf9, 0x1d, 0xe7, 0x1d, 0x3a,
  0x53, 0x0a, 0xca, 0x58, 0xeb, 0xdb, 0x75, 0x3f, 0x72, 0xfe, 0x29, 0xde,
  0x1e, 0x44, 0xa0, 0x14, 0x23, 0xe0, 0xbc, 0x18, 0x46, 0x12, 0xdf, 0x20,
  0x0d, 0xf6, 0xe3, 0x27, 0x14, 0x05, 0xe8, 0x10, 0x22, 0x05, 0xe3, 0xe0,
  0xb6, 0x14, 0xe2, 0xf7, 0xb7, 0xe6, 0xd0, 0xdd, 0x11, 0x12, 0x0f, 0x1b,
  0x3a, 0x05, 0xff, 0xf4, 0x0f, 0x0f, 0xe2, 0xcf, 0xea, 0x25, 0xbd, 0x1d,
  0xff, 0x39, 0x0f, 0xe3, 0xef, 0xc1, 0x2a, 0x17, 0x33, 0xff, 0x81, 0xe1,
  0xf4, 0x75, 0x2f, 0xf9, 0xfe, 0x1f, 0x19, 0x17, 0x02, 0x08, 0xeb, 0xdd,
  0x05, 0xf4, 0x2c, 0xfc, 0x3d, 0x03, 0x31, 0x60, 0x29, 0x12, 0x35, 0x5e,
  0x99, 0x0a, 0xca, 0x81, 0xa3, 0x3a, 0x1a, 0x71, 0x4c, 0xc2, 0xd1, 0xa2,
  0x3d, 0xd3, 0xdb, 0x2f, 0x9d, 0xc3, 0x26, 0x52, 0xcb, 0x34, 0x1f, 0x37,
  0xe1, 0x00, 0x65, 0x4a, 0x52, 0xf9, 0x18, 0x4d, 0xf1, 0x21, 0x01, 0xb8,
  0xde, 0x0f, 0x04, 0x1e, 0xac, 0x19, 0x6a, 0x17, 0xc5, 0x48, 0xfa, 0x40,
  0x6c, 0x5b, 0xe1, 0x3e, 0x24, 0x21, 0x02, 0x04, 0xe2, 0x56, 0x3d, 0xd0,
  0x0a, 0x21, 0xd7, 0x44, 0x99, 0x65, 0xe7, 0xd2, 0x95, 0x8a, 0x03, 0xe8,
  0xe7, 0xc7, 0x26, 0x29, 0x33, 0xa8, 0x0d, 0x4d, 0x3a, 0x1f, 0x12, 0xa3,
  0x42, 0x1d, 0xe0, 0x07, 0x36, 0x1f, 0xe1, 0xd1, 0xb4, 0xa3, 0x8f, 0xba,
  0xfe, 0xd5, 0x03, 0x14, 0x21, 0x50, 0x2c, 0x41, 0x81, 0x1e, 0x05, 0xd0,
  0xf2, 0x05, 0x2a, 0x29, 0x2e, 0x5c, 0x18, 0xe6, 0xfb, 0xfd, 0xec, 0x04,
  0xf0, 0xf5, 0xf1, 0x21, 0xea, 0x5d, 0x37, 0x10, 0xe3, 0x0c, 0xbb, 0xfe,
  0xd4, 0x08, 0xea, 0x54, 0x22, 0xed, 0xe5, 0xf0, 0xdc, 0x30, 0xe6, 0x1a,
  0x1e, 0x26, 0xed, 0x17, 0x07, 0xfd, 0x27, 0xdc, 0xc2, 0x81, 0x32, 0xfe,
  0xed, 0x10, 0xc0, 0x20, 0xba, 0xfb, 0x08, 0x1c, 0xdb, 0x3b, 0x1d, 0xde,
  0x96, 0x17, 0xe8, 0x09, 0x21, 0xb7, 0x12, 0x06, 0x09, 0x71, 0x0a, 0x08,
  0x51, 0xe3, 0xd4, 0xe9, 0xc4, 0xd2, 0x36, 0xce, 0x44, 0x64, 0x4f, 0x0f,
  0x15, 0xbb, 0x31, 0xde, 0x0a, 0xcc, 0x17, 0x8e, 0xaf, 0x25, 0x1a, 0xec,
  0xe2, 0x02, 0x1d, 0x98, 0xf4, 0xe7, 0xff, 0x14, 0x24, 0x15, 0x9b, 0xdd,
  0x81, 0xe2, 0x30, 0x5e, 0xc4, 0xe8, 0xfc, 0x98, 0xea, 0xc4, 0x95, 0xbd,
  0x0e, 0x46, 0xac, 0xd4, 0x1f, 0xcf, 0x44, 0x34, 0x3b, 0xc5, 0xbd, 0x1e,
  0xe1, 0x11, 0xcb, 0x12, 0xcb, 0xd2, 0xf4, 0xde, 0x32, 0xd6, 0xb6, 0x00,
  0x15, 0x4b, 0xfc, 0x22, 0xcb, 0x37, 0xf4, 0xab, 0xc2, 0x37, 0x26, 0x3d,
  0x1e, 0x08, 0x81, 0x2c, 0xf4, 0x42, 0x4e, 0x34, 0xf9, 0x43, 0x01, 0xd3,
  0x21, 0x29, 0xf4, 0x34, 0x11, 0xb3, 0xe3, 0xe7, 0x3c, 0xb0, 0x16, 0x00,
  0xd1, 0xdb, 0xde, 0xe4, 0xe1, 0x1e, 0x06, 0xc9, 0x15, 0x00, 0xd5, 0xc4,
  0x47, 0x04, 0x16, 0xef, 0x01, 0x02, 0x04, 0xca, 0xe1, 0xd0, 0xed, 0xbb,
  0x44, 0xbc, 0x01, 0xee, 0x3f, 0x31, 0xd2, 0x2a, 0x3e, 0xca, 0xb5, 0xd1,
  0x78, 0x04, 0x2b, 0x5f, 0x40, 0x30, 0x10, 0x1e, 0xe9, 0xc9, 0xca, 0xd7,
  0xaa, 0x2f, 0xda, 0x0d, 0x2e, 0xda, 0x00, 0xa5, 0x5b, 0x03, 0x13, 0x03,
  0x14, 0xd8, 0x2d, 0x56, 0xe0, 0x17, 0x11, 0xe1, 0xb3, 0xfa, 0xf3, 0x46,
  0xf1, 0x81, 0x4d, 0x53, 0xfd, 0x90, 0xf2, 0x27, 0xa7, 0x70, 0x0a, 0x72,
  0x06, 0xcb, 0xeb, 0xb5, 0xe1, 0xfa, 0xe4, 0x24, 0x05, 0x59, 0xc2, 0x07,
  0xef, 0x2f, 0x34, 0x46, 0x29, 0xe4, 0x1a, 0xf4, 0x29, 0x47, 0xb7, 0x15,
  0x01, 0x1c, 0x5a, 0xf4, 0x2f, 0x35, 0x3b, 0x2a, 0x00, 0xf8, 0x9b, 0xe4,
  0x52, 0x11, 0x1f, 0x1b, 0xaa, 0xa6, 0xbd, 0x74, 0x06, 0x08, 0xe3, 0xa7,
  0xf8, 0xed, 0xa1, 0xdb, 0x11, 0x03, 0xe9, 0xc9, 0xc8, 0x81, 0x43, 0xbc,
  0xd1, 0x18, 0x4b, 0x42, 0xf2, 0xd8, 0x62, 0x2d, 0x43, 0x27, 0xf3, 0xe9,
  0xec, 0x56, 0x4a, 0xf5, 0x03, 0x9f, 0x06, 0xf0, 0x40, 0x36, 0xfb, 0x52,
  0x2a, 0x19, 0xd0, 0xb1, 0xf6, 0xf0, 0xaf, 0x43, 0xd1, 0xd1, 0xa6, 0x22,
  0x37, 0x3a, 0x19, 0x33, 0xcf, 0x37, 0x1f, 0x35, 0xed, 0x3b, 0xb2, 0x63,
  0xcc, 0x5d, 0xec, 0x35, 0x15, 0xbe, 0x22, 0xd3, 0xe3, 0x81, 0xb3, 0x1b,
  0x32, 0xd3, 0xe5, 0x5c, 0x0b, 0xdf, 0xe9, 0x04, 0x81, 0x01, 0x3d, 0x0d,
  0x42, 0x3d, 0x53, 0x2f, 0x3f, 0xb6, 0xfb, 0x9d, 0xf3, 0x1d, 0xc2, 0x4f,
  0xe6, 0xff, 0x45, 0xde, 0x9d, 0xc0, 0x26, 0x34, 0xa5, 0x29, 0x5a, 0xd4,
  0xfc, 0x39, 0x35, 0xd5, 0xdf, 0xe7, 0x5d, 0x0f, 0xf2, 0x5e, 0x39, 0x0f,
  0xec, 0x14, 0x28, 0x3a, 0x09, 0xf9, 0xc8, 0x23, 0x73, 0xb0, 0xfd, 0xfe,
  0x50, 0x1f, 0xeb, 0xad, 0x0c, 0x15, 0x12, 0x22, 0xe5, 0x16, 0x59, 0xdb,
  0xfb, 0x60, 0xdd, 0xb5, 0x22, 0xa6, 0x01, 0xb5, 0x05, 0x1d, 0x0f, 0x0f,
  0x20, 0x37, 0x16, 0x27, 0xa2, 0x23, 0xf4, 0xfc, 0xe7, 0xc0, 0xf2, 0x5b,
  0x94, 0x29, 0xeb, 0xe0, 0x48, 0x8d, 0xd2, 0xfb, 0x40, 0x31, 0x41, 0xfa,
  0xe2, 0x0e, 0xe1, 0x0f, 0x11, 0xb8, 0x49, 0x81, 0x05, 0x5d, 0xfe, 0x19,
  0x58, 0x39, 0xac, 0xd1, 0xfc, 0xa7, 0xa4, 0x99, 0xf2, 0xa7, 0xbe, 0xe9,
  0x0a, 0x1b, 0xd3, 0x9d, 0x04, 0x1a, 0xff, 0xdd, 0x25, 0xcf, 0xd7, 0xc6,
  0x24, 0x81, 0xf1, 0xf8, 0x12, 0xa1, 0x39, 0xe5, 0x56, 0x16, 0x41, 0xe0,
  0x27, 0xe5, 0x10, 0x18, 0x08, 0x38, 0x04, 0xd7, 0xab, 0x0a, 0x41, 0xef,
  0xec, 0x41, 0x34, 0xd7, 0x2c, 0xf9, 0x2c, 0xe3, 0x22, 0x48, 0xf3, 0x27,
  0x47, 0xf6, 0x0c, 0x14, 0xda, 0xbb, 0x4d, 0xc7, 0x47, 0xbf, 0x30, 0x0f,
  0xdc, 0x0c, 0x46, 0xe6, 0xc9, 0x09, 0xd6, 0x23, 0x25, 0x81, 0xe1, 0xe5,
  0xec, 0x04, 0x03, 0xb9, 0x39, 0x09, 0xd4, 0xe0, 0xe7, 0xfc, 0xef, 0xb9,
  0xc4, 0xea, 0x22, 0xb8, 0x8c, 0xe7, 0xef, 0xf3, 0x1b, 0x1b, 0xbd, 0xdf,
  0x1d, 0x06, 0x1c, 0x2f, 0x27, 0xfe, 0xa0, 0xe5, 0xf7, 0xca, 0x9b, 0x19,
  0xc8, 0xf1, 0xd4, 0x9c, 0x1b, 0x1e, 0xd8, 0x9e, 0xd2, 0xf9, 0x8a, 0x00,
  0x16, 0xff, 0x09, 0x05, 0xec, 0x2e, 0xf7, 0x2d, 0xc7, 0x4c, 0xf2, 0xcd,
  0x35, 0x17, 0x29, 0x22, 0x81, 0xe7, 0xb8, 0xf2, 0xd1, 0x51, 0x0b, 0x2a,
  0x22, 0x43, 0xe7, 0xe7, 0x13, 0x13, 0x15, 0x59, 0xe3, 0xe8, 0xdf, 0xdc,
  0x43, 0xa1, 0x12, 0xf3, 0xe9, 0xdf, 0xe7, 0xcb, 0xc1, 0xcf, 0x42, 0xeb,
  0x32, 0x39, 0xcf, 0x2f, 0x0f, 0xfc, 0x2a, 0xc6, 0xfd, 0x39, 0x11, 0x10,
  0xfd, 0x0a, 0x3c, 0xca, 0x05, 0xb4, 0xed, 0x15, 0xf2, 0x14, 0x12, 0xb3,
  0x1f, 0x97, 0xe8, 0x26, 0xe6, 0x09, 0x56, 0x02, 0x01, 0xd7, 0x1c, 0xe1,
  0x39, 0x53, 0xe9, 0xd8, 0xad, 0xfd, 0x29, 0x1c, 0xa2, 0x04, 0xf2, 0xea,
  0x0d, 0xb5, 0xe6, 0xf2, 0xe2, 0xda, 0x11, 0xfe, 0x22, 0xed, 0xbb, 0xeb,
  0x23, 0x12, 0x5d, 0x4d, 0xc2, 0x18, 0x01, 0xdb, 0x3c, 0xf5, 0x07, 0x33,
  0xe1, 0xfa, 0x32, 0xba, 0x32, 0xee, 0xf9, 0xc6, 0x09, 0xed, 0x04, 0x20,
  0x37, 0x2c, 0x26, 0x18, 0x47, 0x7f, 0xf6, 0xf6, 0xc5, 0xe5, 0x40, 0xb5,
  0xfc, 0x31, 0x31, 0x15, 0x38, 0xed, 0xea, 0xeb, 0xcc, 0x10, 0x39, 0x28,
  0xe8, 0xba, 0xf0, 0xd7, 0x00, 0x1f, 0xd6, 0x0d, 0x0f, 0xe2, 0xf0, 0xd6,
  0xe9, 0x0d, 0x3d, 0x37, 0x15, 0xe3, 0xa4, 0x27, 0x23, 0xe8, 0xd0, 0xea,
  0x10, 0xfc, 0xd6, 0xe9, 0xd1, 0xdc, 0xd6, 0xe4, 0xf2, 0xde, 0x81, 0x0a,
  0xe9, 0x77, 0xe8, 0x4a, 0x1e, 0x66, 0x08, 0x38, 0xeb, 0xf9, 0xd8, 0xbf,
  0xf2, 0xe2, 0xd2, 0xf6, 0x15, 0x0d, 0xf6, 0xf9, 0x0e, 0x81, 0xd6, 0x2a,
  0xff, 0xe2, 0x1d, 0x4a, 0x24, 0x2d, 0x16, 0x3c, 0x52, 0xd7, 0x01, 0xe6,
  0x2d, 0x13, 0x21, 0xf2, 0xff, 0xe8, 0x18, 0x0f, 0xeb, 0xee, 0x19, 0x2b,
  0x36, 0x2a, 0x18, 0x0c, 0xf4, 0x0a, 0xed, 0x09, 0xed, 0x2c, 0x12, 0x1f,
  0xc1, 0xe6, 0x45, 0xe7, 0x34, 0xd8, 0x2d, 0x29, 0x05, 0x2f, 0x33, 0x14,
  0xf4, 0x39, 0xd6, 0x37, 0x9f, 0xfd, 0x42, 0x51, 0xd1, 0x36, 0xe9, 0x08,
  0xef, 0xc9, 0x27, 0xba, 0xc2, 0x4d, 0x07, 0xfe, 0xdf, 0xe4, 0xfd, 0xd7,
  0xfa, 0xe0, 0x44, 0xe8, 0x54, 0xe4, 0xea, 0x37, 0x30, 0x4c, 0x1b, 0xdd,
  0xea, 0xdb, 0xed, 0x9f, 0x9b, 0x1b, 0x81, 0x50, 0xec, 0x52, 0x36, 0x14,
  0x4c, 0xe9, 0xed, 0x4d, 0x68, 0xf3, 0xd9, 0xf9, 0x16, 0xe0, 0x32, 0x95,
  0xda, 0xe1, 0xe2, 0x32, 0x51, 0xc3, 0xfc, 0x0f, 0xe4, 0xd2, 0x9c, 0xc6,
  0x31, 0xd2, 0x27, 0xec, 0xf3, 0x95, 0xc2, 0x2f, 0xc9, 0x2c, 0x2f, 0xe1,
  0x31, 0xed, 0x32, 0x52, 0x3d, 0x3b, 0x36, 0xf6, 0x16, 0xeb, 0x59, 0xfa,
  0x26, 0xef, 0x46, 0x17, 0x0f, 0x16, 0x12, 0x17, 0x0a, 0xf5, 0x37, 0xf5,
  0x1e, 0xf9, 0x05, 0xfc, 0x31, 0x2d, 0x44, 0xed, 0xd5, 0xd6, 0x1e, 0xe4,
  0xda, 0x81, 0x41, 0xea, 0xcf, 0x1f, 0x15, 0xde, 0xd1, 0x42, 0x17, 0xd3,
  0xcf, 0xa5, 0xef, 0xef, 0x09, 0x09, 0xf0, 0xf4, 0x12, 0x30, 0x0f, 0x1f,
  0xc7, 0x2e, 0xc6, 0x94, 0x39, 0x14, 0xd6, 0x57, 0x31, 0x01, 0xb3, 0xcb,
  0xc6, 0x2e, 0x19, 0x16, 0x21, 0x49, 0xf6, 0x41, 0x39, 0x45, 0xe7, 0x43,
  0xe7, 0x53, 0xb4, 0xda, 0x45, 0x81, 0x1e, 0x0b, 0xd0, 0x3d, 0xbe, 0xfe,
  0x25, 0x30, 0xfe, 0xe2, 0xe9, 0x12, 0xeb, 0xaa, 0xf7, 0x2d, 0x4f, 0x05,
  0x15, 0xb6, 0x12, 0xb9, 0xf2, 0x04, 0x41, 0xef, 0xf4, 0x0d, 0xde, 0x6d,
  0x9b, 0x13, 0xf3, 0x37, 0x41, 0x47, 0xee, 0x13, 0xee, 0x33, 0xbe, 0x3c,
  0xd9, 0x59, 0x30, 0x51, 0x13, 0xa8, 0x88, 0x2e, 0x36, 0x50, 0xfe, 0xb9,
  0x1f, 0xb0, 0x66, 0x30, 0x72, 0x75, 0xfa, 0x89, 0xe8, 0x0f, 0xa1, 0xca,
  0xf1, 0x3d, 0x28, 0x13, 0xec, 0xbd, 0x1b, 0x1b, 0xfb, 0x7a, 0x99, 0xbd,
  0x7f, 0x61, 0x5c, 0xaa, 0xe9, 0x01, 0xd2, 0x95, 0x2b, 0xfc, 0xe5, 0x0c,
  0x21, 0xfd, 0xf6, 0x3d, 0x2b, 0xdf, 0xc1, 0x28, 0xf7, 0xd2, 0xca, 0x14,
  0x45, 0xd6, 0x14, 0x33, 0x66, 0xd5, 0xb4, 0xae, 0x19, 0x07, 0x1d, 0x48,
  0xcf, 0x40, 0x1e, 0xd6, 0xdf, 0xb4, 0xe9, 0xdd, 0x32, 0xb4, 0x1d, 0xf4,
  0x05, 0xd1, 0xda, 0x7f, 0x0f, 0xfe, 0x29, 0xc8, 0x9a, 0x1b, 0x2f, 0xfa,
  0xd3, 0xc8, 0x15, 0x39, 0x01, 0x13, 0x2c, 0xfd, 0x1f, 0x05, 0xe5, 0x39,
  0xe4, 0xe8, 0xba, 0x01, 0x1a, 0xd0, 0x12, 0xfb, 0xe2, 0x81, 0x18, 0x2b,
  0x47, 0x11, 0x24, 0x1d, 0x20, 0xda, 0xd2, 0x50, 0x55, 0x42, 0xeb, 0x17,
  0x38, 0xf0, 0xe4, 0x27, 0x16, 0xd3, 0x37, 0x3d, 0x12, 0x3c, 0x17, 0xd3,
  0x1a, 0x14, 0x62, 0x06, 0xdc, 0xf8, 0x20, 0x0a, 0xf4, 0xde, 0xcc, 0xf8,
  0xe8, 0xe0, 0xf7, 0xd8, 0xf6, 0x8b, 0x5e, 0x42, 0x9e, 0xf4, 0x08, 0xc1,
  0xf8, 0x49, 0x29, 0x1b, 0x06, 0x2d, 0xf1, 0x66, 0xd6, 0x17, 0xbf, 0xc5,
  0xdd, 0x27, 0x34, 0xc1, 0xc6, 0xeb, 0x1c, 0x13, 0x25, 0x24, 0x4e, 0xf5,
  0x1f, 0x23, 0xda, 0xb7, 0x4b, 0x08, 0xe9, 0x9d, 0x4d, 0x1f, 0xe9, 0xca,
  0xfc, 0xc9, 0x4a, 0x1b, 0xe3, 0x0c, 0xf3, 0x22, 0xa8, 0x29, 0x41, 0xb7,
  0x0b, 0xed, 0x94, 0x04, 0x00, 0x63, 0x81, 0x12, 0x1c, 0x0a, 0x44, 0x57,
  0x27, 0x05, 0xd3, 0x19, 0x3e, 0x07, 0xf9, 0xfa, 0x0e, 0xd6, 0x4c, 0x02,
  0xc0, 0x38, 0xb1, 0x19, 0xf1, 0x02, 0x14, 0x67, 0xa6, 0xfe, 0x09, 0x3f,
  0x81, 0x13, 0xcb, 0x28, 0xf2, 0xcb, 0xfa, 0x32, 0x2c, 0x16, 0x44, 0x1e,
  0x31, 0xed, 0xc2, 0x45, 0x45, 0x75, 0x48, 0x4c, 0xfd, 0xb7, 0x53, 0x2e,
  0xb1, 0xbb, 0xf5, 0x44, 0x3a, 0xeb, 0x23, 0x44, 0xf6, 0xeb, 0x27, 0xcc,
  0xbe, 0xc6, 0x0f, 0xed, 0xe8, 0x32, 0x1c, 0x21, 0x0b, 0xeb, 0x25, 0x6a,
  0xdd, 0xc6, 0xd9, 0x7b, 0x82, 0x74, 0xee, 0x32, 0x20, 0x6d, 0xed, 0xb8,
  0xf9, 0x44, 0x11, 0x11, 0x5f, 0xfa, 0x42, 0x57, 0x89, 0x62, 0x28, 0x09,
  0xed, 0xf8, 0x23, 0xc2, 0xf2, 0x55, 0x67, 0x3c, 0x0a, 0xfb, 0x02, 0xab,
  0x58, 0x79, 0x87, 0xac, 0xbe, 0x76, 0xf9, 0xa8, 0x2f, 0xdc, 0x51, 0xd6,
  0x7f, 0x08, 0x47, 0x3b, 0xf6, 0x27, 0x3b, 0xa9, 0x37, 0x59, 0x1f, 0x0d,
  0x1a, 0x4c, 0x5c, 0x86, 0x7e, 0xfe, 0xff, 0xff, 0x04, 0x00, 0x00, 0x00,
  0x80, 0x00, 0x00, 0x00, 0x6d, 0xfd, 0xff, 0xff, 0x6d, 0xff, 0xff, 0xff,
  0xa4, 0x02, 0x00, 0x00, 0x5a, 0xfe, 0xff, 0xff, 0x16, 0x04, 0x00, 0x00,
  0x8f, 0xfe, 0xff, 0xff, 0x49, 0x02, 0x00, 0x00, 0x99, 0xfe, 0xff, 0xff,
  0x9c, 0xfd, 0xff, 0xff, 0x63, 0xfd, 0xff, 0xff, 0x48, 0x01, 0x00, 0x00,
  0x9e, 0xfe, 0xff, 0xff, 0xcc, 0x01, 0x00, 0x00, 0x14, 0xfe, 0xff, 0xff,
  0xb2, 0xfc, 0xff, 0xff, 0xe3, 0xfc, 0xff, 0xff, 0x7d, 0xfe, 0xff, 0xff,
  0x58, 0x02, 0x00, 0x00, 0x66, 0x01, 0x00, 0x00, 0x93, 0xfe, 0xff, 0xff,
  0x84, 0x00, 0x00, 0x00, 0xcc, 0x02, 0x00, 0x00, 0xde, 0x02, 0x00, 0x00,
  0x88, 0x01, 0x00, 0x00, 0xcd, 0x00, 0x00, 0x00, 0x28, 0xfe, 0xff, 0xff,
  0x4b, 0xff, 0xff, 0xff, 0x6e, 0xfe, 0xff, 0xff, 0x48, 0x04, 0x00, 0x00,
  0x7a, 0x05, 0x00, 0x00, 0x79, 0xff, 0xff, 0xff, 0x20, 0xff, 0xff, 0xff,
  0x0a, 0xff, 0xff, 0xff, 0x04, 0x00, 0x00, 0x00, 0x40, 0x00, 0x00, 0x00,
  0x0b, 0x45, 0x22, 0xd7, 0xf4, 0xa0, 0xf1, 0x1b, 0x2f, 0x30, 0x81, 0x55,
  0x49, 0x2f, 0x64, 0x02, 0x69, 0xfb, 0xb7, 0x95, 0x1d, 0x90, 0x2c, 0xc5,
  0xfa, 0x52, 0xe5, 0x2a, 0x24, 0xca, 0x2d, 0xdf, 0xdd, 0x9a, 0x45, 0xb4,
  0x63, 0x11, 0x4b, 0xde, 0xa5, 0xc6, 0x7f, 0xb9, 0xb9, 0x0a, 0xd4, 0x42,
  0x8f, 0xb2, 0x35, 0x1d, 0x9f, 0x79, 0xf4, 0x57, 0xcf, 0xd9, 0x4e, 0xd8,
  0xcb, 0x2e, 0x15, 0x31, 0x56, 0xff, 0xff, 0xff, 0x04, 0x00, 0x00, 0x00,
  0x08, 0x00, 0x00, 0x00, 0x24, 0xff, 0xff, 0xff, 0xe1, 0x00, 0x00, 0x00,
  0x38, 0xff, 0xff, 0xff, 0x3c, 0xff, 0xff, 0xff, 0x0f, 0x00, 0x00, 0x00,
  0x4d, 0x4c, 0x49, 0x52, 0x20, 0x43, 0x6f, 0x6e, 0x76, 0x65, 0x72, 0x74,
  0x65, 0x64, 0x2e, 0x00, 0x01, 0x00, 0x00, 0x00, 0x14, 0x00, 0x00, 0x00,
  0x00, 0x00, 0x0e, 0x00, 0x18, 0x00, 0x14, 0x00, 0x10, 0x00, 0x0c, 0x00,
  0x08, 0x00, 0x04, 0x00, 0x0e, 0x00, 0x00, 0x00, 0x14, 0x00, 0x00, 0x00,
  0x1c, 0x00, 0x00, 0x00, 0x28, 0x01, 0x00, 0x00, 0x2c, 0x01, 0x00, 0x00,
  0x30, 0x01, 0x00, 0x00, 0x04, 0x00, 0x00, 0x00, 0x6d, 0x61, 0x69, 0x6e,
  0x00, 0x00, 0x00, 0x00, 0x04, 0x00, 0x00, 0x00, 0xd0, 0x00, 0x00, 0x00,
  0x88, 0x00, 0x00, 0x00, 0x50, 0x00, 0x00, 0x00, 0x14, 0x00, 0x00, 0x00,
  0x00, 0x00, 0x0e, 0x00, 0x1a, 0x00, 0x14, 0x00, 0x10, 0x00, 0x0c, 0x00,
  0x0b, 0x00, 0x04, 0x00, 0x0e, 0x00, 0x00, 0x00, 0x1c, 0x00, 0x00, 0x00,
  0x00, 0x00, 0x00, 0x09, 0x1c, 0x00, 0x00, 0x00, 0x20, 0x00, 0x00, 0x00,
  0x01, 0x00, 0x00, 0x00, 0x00, 0x00, 0x06, 0x00, 0x08, 0x00, 0x04, 0x00,
  0x06, 0x00, 0x00, 0x00, 0x00, 0x00, 0x80, 0x3f, 0x01, 0x00, 0x00, 0x00,
  0x0a, 0x00, 0x00, 0x00, 0x01, 0x00, 0x00, 0x00, 0x09, 0x00, 0x00, 0x00,
  0x96, 0xff, 0xff, 0xff, 0x14, 0x00, 0x00, 0x00, 0x00, 0x00, 0x00, 0x08,
  0x10, 0x00, 0x00, 0x00, 0x14, 0x00, 0x00, 0x00, 0x04, 0x00, 0x04, 0x00,
  0x04, 0x00, 0x00, 0x00, 0x01, 0x00, 0x00, 0x00, 0x09, 0x00, 0x00, 0x00,
  0x03, 0x00, 0x00, 0x00, 0x08, 0x00, 0x00, 0x00, 0x02, 0x00, 0x00, 0x00,
  0x01, 0x00, 0x00, 0x00, 0xca, 0xff, 0xff, 0xff, 0x10, 0x00, 0x00, 0x00,
  0x00, 0x00, 0x00, 0x08, 0x10, 0x00, 0x00, 0x00, 0x14, 0x00, 0x00, 0x00,
  0xba, 0xff, 0xff, 0xff, 0x00, 0x00, 0x00, 0x01, 0x01, 0x00, 0x00, 0x00,
  0x08, 0x00, 0x00, 0x00, 0x03, 0x00, 0x00, 0x00, 0x07, 0x00, 0x00, 0x00,
  0x04, 0x00, 0x00, 0x00, 0x03, 0x00, 0x00, 0x00, 0x00, 0x00, 0x0e, 0x00,
  0x16, 0x00, 0x00, 0x00, 0x10, 0x00, 0x0c, 0x00, 0x0b, 0x00, 0x04, 0x00,
  0x0e, 0x00, 0x00, 0x00, 0x18, 0x00, 0x00, 0x00, 0x00, 0x00, 0x00, 0x08,
  0x18, 0x00, 0x00, 0x00, 0x1c, 0x00, 0x00, 0x00, 0x00, 0x00, 0x06, 0x00,
  0x08, 0x00, 0x07, 0x00, 0x06, 0x00, 0x00, 0x00, 0x00, 0x00, 0x00, 0x01,
  0x01, 0x00, 0x00, 0x00, 0x07, 0x00, 0x00, 0x00, 0x03, 0x00, 0x00, 0x00,
  0x00, 0x00, 0x00, 0x00, 0x06, 0x00, 0x00, 0x00, 0x05, 0x00, 0x00, 0x00,
  0x01, 0x00, 0x00, 0x00, 0x0a, 0x00, 0x00, 0x00, 0x01, 0x00, 0x00, 0x00,
  0x00, 0x00, 0x00, 0x00, 0x0b, 0x00, 0x00, 0x00, 0x78, 0x0e, 0x00, 0x00,
  0xe8, 0x0d, 0x00, 0x00, 0x54, 0x0d, 0x00, 0x00, 0x58, 0x0b, 0x00, 0x00,
  0x74, 0x09, 0x00, 0x00, 0xf8, 0x05, 0x00, 0x00, 0x94, 0x02, 0x00, 0x00,
  0xe0, 0x01, 0x00, 0x00, 0x24, 0x01, 0x00, 0x00, 0x80, 0x00, 0x00, 0x00,
  0x04, 0x00, 0x00, 0x00, 0xca, 0xf1, 0xff, 0xff, 0x00, 0x00, 0x00, 0x01,
  0x18, 0x00, 0x00, 0x00, 0x20, 0x00, 0x00, 0x00, 0x3c, 0x00, 0x00, 0x00,
  0x0b, 0x00, 0x00, 0x00, 0x00, 0x00, 0x00, 0x09, 0x50, 0x00, 0x00, 0x00,
  0x02, 0x00, 0x00, 0x00, 0xff, 0xff, 0xff, 0xff, 0x02, 0x00, 0x00, 0x00,
  0xb4, 0xf1, 0xff, 0xff, 0x08, 0x00, 0x00, 0x00, 0x10, 0x00, 0x00, 0x00,
  0x01, 0x00, 0x00, 0x00, 0x80, 0xff, 0xff, 0xff, 0xff, 0xff, 0xff, 0xff,
  0x01, 0x00, 0x00, 0x00, 0x00, 0x00, 0x80, 0x3b, 0x1b, 0x00, 0x00, 0x00,
  0x53, 0x74, 0x61, 0x74, 0x65, 0x66, 0x75, 0x6c, 0x50, 0x61, 0x72, 0x74,
  0x69, 0x74, 0x69, 0x6f, 0x6e, 0x65, 0x64, 0x43, 0x61, 0x6c, 0x6c, 0x5f,
  0x31, 0x3a, 0x30, 0x00, 0x02, 0x00, 0x00, 0x00, 0x01, 0x00, 0x00, 0x00,
  0x02, 0x00, 0x00, 0x00, 0x42, 0xf2, 0xff, 0xff, 0x00, 0x00, 0x00, 0x01,
  0x18, 0x00, 0x00, 0x00, 0x20, 0x00, 0x00, 0x00, 0x40, 0x00, 0x00, 0x00,
  0x0a, 0x00, 0x00, 0x00, 0x00, 0x00, 0x00, 0x09, 0x78, 0x00, 0x00, 0x00,
  0x02, 0x00, 0x00, 0x00, 0xff, 0xff, 0xff, 0xff, 0x02, 0x00, 0x00, 0x00,
  0x2c, 0xf2, 0xff, 0xff, 0x08, 0x00, 0x00, 0x00, 0x14, 0x00, 0x00, 0x00,
  0x01, 0x00, 0x00, 0x00, 0xee, 0xff, 0xff, 0xff, 0xff, 0xff, 0xff, 0xff,
  0x00, 0x00, 0x00, 0x00, 0x01, 0x00, 0x00, 0x00, 0x56, 0xa4, 0x2a, 0x3d,
  0x3c, 0x00, 0x00, 0x00, 0x73, 0x65, 0x71, 0x75, 0x65, 0x6e, 0x74, 0x69,
  0x61, 0x6c, 0x5f, 0x31, 0x2f, 0x64, 0x65, 0x6e, 0x73, 0x65, 0x5f, 0x32,
  0x5f, 0x31, 0x2f, 0x4d, 0x61, 0x74, 0x4d, 0x75, 0x6c, 0x3b, 0x73, 0x65,
  0x71, 0x75, 0x65, 0x6e, 0x74, 0x69, 0x61, 0x6c, 0x5f, 0x31, 0x2f, 0x64,
  0x65, 0x6e, 0x73, 0x65, 0x5f, 0x32, 0x5f, 0x31, 0x2f, 0x42, 0x69, 0x61,
  0x73, 0x41, 0x64, 0x64, 0x00, 0x00, 0x00, 0x00, 0x02, 0x00, 0x00, 0x00,
  0x01, 0x00, 0x00, 0x00, 0x02, 0x00, 0x00, 0x00, 0xe2, 0xf2, 0xff, 0xff,
  0x00, 0x00, 0x00, 0x01, 0x18, 0x00, 0x00, 0x00, 0x20, 0x00, 0x00, 0x00,
  0x3c, 0x00, 0x00, 0x00, 0x09, 0x00, 0x00, 0x00, 0x00, 0x00, 0x00, 0x09,
  0x90, 0x00, 0x00, 0x00, 0x02, 0x00, 0x00, 0x00, 0xff, 0xff, 0xff, 0xff,
  0x20, 0x00, 0x00, 0x00, 0xcc, 0xf2, 0xff, 0xff, 0x08, 0x00, 0x00, 0x00,
  0x10, 0x00, 0x00, 0x00, 0x01, 0x00, 0x00, 0x00, 0x80, 0xff, 0xff, 0xff,
  0xff, 0xff, 0xff, 0xff, 0x01, 0x00, 0x00, 0x00, 0x4e, 0xd2, 0x45, 0x3c,
  0x58, 0x00, 0x00, 0x00, 0x73, 0x65, 0x71, 0x75, 0x65, 0x6e, 0x74, 0x69,
  0x61, 0x6c, 0x5f, 0x31, 0x2f, 0x64, 0x65, 0x6e, 0x73, 0x65, 0x5f, 0x31,
  0x5f, 0x32, 0x2f, 0x4d, 0x61, 0x74, 0x4d, 0x75, 0x6c, 0x3b, 0x73, 0x65,
  0x71, 0x75, 0x65, 0x6e, 0x74, 0x69, 0x61, 0x6c, 0x5f, 0x31, 0x2f, 0x64,
  0x65, 0x6e, 0x73, 0x65, 0x5f, 0x31, 0x5f, 0x32, 0x2f, 0x52, 0x65, 0x6c,
  0x75, 0x3b, 0x73, 0x65, 0x71, 0x75, 0x65, 0x6e, 0x74, 0x69, 0x61, 0x6c,
  0x5f, 0x31, 0x2f, 0x64, 0x65, 0x6e, 0x73, 0x65, 0x5f, 0x31, 0x5f, 0x32,
  0x2f, 0x42, 0x69, 0x61, 0x73, 0x41, 0x64, 0x64, 0x00, 0x00, 0x00, 0x00,
  0x02, 0x00, 0x00, 0x00, 0x01, 0x00, 0x00, 0x00, 0x20, 0x00, 0x00, 0x00,
  0x9a, 0xf3, 0xff, 0xff, 0x00, 0x00, 0x00, 0x01, 0x18, 0x00, 0x00, 0x00,
  0x20, 0x00, 0x00, 0x00, 0x3c, 0x00, 0x00, 0x00, 0x08, 0x00, 0x00, 0x00,
  0x00, 0x00, 0x00, 0x09, 0x88, 0x00, 0x00, 0x00, 0x02, 0x00, 0x00, 0x00,
  0xff, 0xff, 0xff, 0xff, 0x40, 0x00, 0x00, 0x00, 0x84, 0xf3, 0xff, 0xff,
  0x08, 0x00, 0x00, 0x00, 0x10, 0x00, 0x00, 0x00, 0x01, 0x00, 0x00, 0x00,
  0x80, 0xff, 0xff, 0xff, 0xff, 0xff, 0xff, 0xff, 0x01, 0x00, 0x00, 0x00,
  0x47, 0x3e, 0x59, 0x3c, 0x52, 0x00, 0x00, 0x00, 0x73, 0x65, 0x71, 0x75,
  0x65, 0x6e, 0x74, 0x69, 0x61, 0x6c, 0x5f, 0x31, 0x2f, 0x64, 0x65, 0x6e,
  0x73, 0x65, 0x5f, 0x31, 0x2f, 0x4d, 0x61, 0x74, 0x4d, 0x75, 0x6c, 0x3b,
  0x73, 0x65, 0x71, 0x75, 0x65, 0x6e, 0x74, 0x69, 0x61, 0x6c, 0x5f, 0x31,
  0x2f, 0x64, 0x65, 0x6e, 0x73, 0x65, 0x5f, 0x31, 0x2f, 0x52, 0x65, 0x6c,
  0x75, 0x3b, 0x73, 0x65, 0x71, 0x75, 0x65, 0x6e, 0x74, 0x69, 0x61, 0x6c,
  0x5f, 0x31, 0x2f, 0x64, 0x65, 0x6e, 0x73, 0x65, 0x5f, 0x31, 0x2f, 0x42,
  0x69, 0x61, 0x73, 0x41, 0x64, 0x64, 0x00, 0x00, 0x02, 0x00, 0x00, 0x00,
  0x01, 0x00, 0x00, 0x00, 0x40, 0x00, 0x00, 0x00, 0xd6, 0xf4, 0xff, 0xff,
  0x00, 0x00, 0x00, 0x01, 0x14, 0x00, 0x00, 0x00, 0x28, 0x03, 0x00, 0x00,
  0x07, 0x00, 0x00, 0x00, 0x00, 0x00, 0x00, 0x09, 0x3c, 0x03, 0x00, 0x00,
  0x24, 0xf4, 0xff, 0xff, 0x08, 0x00, 0x00, 0x00, 0x0c, 0x02, 0x00, 0x00,
  0x40, 0x00, 0x00, 0x00, 0x00, 0x00, 0x00, 0x00, 0x00, 0x00, 0x00, 0x00,
  0x00, 0x00, 0x00, 0x00, 0x00, 0x00, 0x00, 0x00, 0x00, 0x00, 0x00, 0x00,
  0x00, 0x00, 0x00, 0x00, 0x00, 0x00, 0x00, 0x00, 0x00, 0x00, 0x00, 0x00,
  0x00, 0x00, 0x00, 0x00, 0x00, 0x00, 0x00, 0x00, 0x00, 0x00, 0x00, 0x00,
  0x00, 0x00, 0x00, 0x00, 0x00, 0x00, 0x00, 0x00, 0x00, 0x00, 0x00, 0x00,
  0x00, 0x00, 0x00, 0x00, 0x00, 0x00, 0x00, 0x00, 0x00, 0x00, 0x00, 0x00,
  0x00, 0x00, 0x00, 0x00, 0x00, 0x00, 0x00, 0x00, 0x00, 0x00, 0x00, 0x00,
  0x00, 0x00, 0x00, 0x00, 0x00, 0x00, 0x00, 0x00, 0x00, 0x00, 0x00, 0x00,
  0x00, 0x00, 0x00, 0x00, 0x00, 0x00, 0x00, 0x00, 0x00, 0x00, 0x00, 0x00,
  0x00, 0x00, 0x00, 0x00, 0x00, 0x00, 0x00, 0x00, 0x00, 0x00, 0x00, 0x00,
  0x00, 0x00, 0x00, 0x00, 0x00, 0x00, 0x00, 0x00, 0x00, 0x00, 0x00, 0x00,
  0x00, 0x00, 0x00, 0x00, 0x00, 0x00, 0x00, 0x00, 0x00, 0x00, 0x00, 0x00,
  0x00, 0x00, 0x00, 0x00, 0x00, 0x00, 0x00, 0x00, 0x00, 0x00, 0x00, 0x00,
  0x00, 0x00, 0x00, 0x00, 0x00, 0x00, 0x00, 0x00, 0x00, 0x00, 0x00, 0x00,
  0x00, 0x00, 0x00, 0x00, 0x00, 0x00, 0x00, 0x00, 0x00, 0x00, 0x00, 0x00,
  0x00, 0x00, 0x00, 0x00, 0x00, 0x00, 0x00, 0x00, 0x00, 0x00, 0x00, 0x00,
  0x00, 0x00, 0x00, 0x00, 0x00, 0x00, 0x00, 0x00, 0x00, 0x00, 0x00, 0x00,
  0x00, 0x00, 0x00, 0x00, 0x00, 0x00, 0x00, 0x00, 0x00, 0x00, 0x00, 0x00,
  0x00, 0x00, 0x00, 0x00, 0x00, 0x00, 0x00, 0x00, 0x00, 0x00, 0x00, 0x00,
  0x00, 0x00, 0x00, 0x00, 0x00, 0x00, 0x00, 0x00, 0x00, 0x00, 0x00, 0x00,
  0x00, 0x00, 0x00, 0x00, 0x00, 0x00, 0x00, 0x00, 0x00, 0x00, 0x00, 0x00,
  0x00, 0x00, 0x00, 0x00, 0x00, 0x00, 0x00, 0x00, 0x00, 0x00, 0x00, 0x00,
  0x00, 0x00, 0x00, 0x00, 0x00, 0x00, 0x00, 0x00, 0x00, 0x00, 0x00, 0x00,
  0x00, 0x00, 0x00, 0x00, 0x00, 0x00, 0x00, 0x00, 0x00, 0x00, 0x00, 0x00,
  0x00, 0x00, 0x00, 0x00, 0x00, 0x00, 0x00, 0x00, 0x00, 0x00, 0x00, 0x00,
  0x00, 0x00, 0x00, 0x00, 0x00, 0x00, 0x00, 0x00, 0x00, 0x00, 0x00, 0x00,
  0x00, 0x00, 0x00, 0x00, 0x00, 0x00, 0x00, 0x00, 0x00, 0x00, 0x00, 0x00,
  0x00, 0x00, 0x00, 0x00, 0x00, 0x00, 0x00, 0x00, 0x00, 0x00, 0x00, 0x00,
  0x00, 0x00, 0x00, 0x00, 0x00, 0x00, 0x00, 0x00, 0x00, 0x00, 0x00, 0x00,
  0x00, 0x00, 0x00, 0x00, 0x00, 0x00, 0x00, 0x00, 0x00, 0x00, 0x00, 0x00,
  0x00, 0x00, 0x00, 0x00, 0x00, 0x00, 0x00, 0x00, 0x00, 0x00, 0x00, 0x00,
  0x00, 0x00, 0x00, 0x00, 0x00, 0x00, 0x00, 0x00, 0x00, 0x00, 0x00, 0x00,
  0x00, 0x00, 0x00, 0x00, 0x00, 0x00, 0x00, 0x00, 0x00, 0x00, 0x00, 0x00,
  0x00, 0x00, 0x00, 0x00, 0x00, 0x00, 0x00, 0x00, 0x00, 0x00, 0x00, 0x00,
  0x00, 0x00, 0x00, 0x00, 0x00, 0x00, 0x00, 0x00, 0x00, 0x00, 0x00, 0x00,
  0x00, 0x00, 0x00, 0x00, 0x00, 0x00, 0x00, 0x00, 0x00, 0x00, 0x00, 0x00,
  0x00, 0x00, 0x00, 0x00, 0x00, 0x00, 0x00, 0x00, 0x00, 0x00, 0x00, 0x00,
  0x00, 0x00, 0x00, 0x00, 0x00, 0x00, 0x00, 0x00, 0x00, 0x00, 0x00, 0x00,
  0x00, 0x00, 0x00, 0x00, 0x00, 0x00, 0x00, 0x00, 0x00, 0x00, 0x00, 0x00,
  0x00, 0x00, 0x00, 0x00, 0x00, 0x00, 0x00, 0x00, 0x00, 0x00, 0x00, 0x00,
  0x00, 0x00, 0x00, 0x00, 0x00, 0x00, 0x00, 0x00, 0x00, 0x00, 0x00, 0x00,
  0x00, 0x00, 0x00, 0x00, 0x00, 0x00, 0x00, 0x00, 0x00, 0x00, 0x00, 0x00,
  0x00, 0x00, 0x00, 0x00, 0x00, 0x00, 0x00, 0x00, 0x00, 0x00, 0x00, 0x00,
  0x00, 0x00, 0x00, 0x00, 0x40, 0x00, 0x00, 0x00, 0x54, 0x05, 0x48, 0x3b,
  0xb8, 0xad, 0x55, 0x3b, 0xa8, 0x7c, 0x59, 0x3b, 0x8e, 0xa7, 0x27, 0x3b,
  0x7a, 0x8c, 0x2b, 0x3b, 0x91, 0xd5, 0x59, 0x3b, 0x25, 0xa1, 0x34, 0x3b,
  0x0c, 0xfd, 0x5a, 0x3b, 0xe2, 0x13, 0xfd, 0x3a, 0x17, 0x8e, 0x7a, 0x3b,
  0x38, 0xb3, 0x4a, 0x3b, 0x14, 0x59, 0x1a, 0x3b, 0xe6, 0x34, 0x3d, 0x3b,
  0x10, 0x51, 0x7d, 0x3b, 0xd6, 0xea, 0x3c, 0x3b, 0x6f, 0xf5, 0x35, 0x3b,
  0x7a, 0x8b, 0x56, 0x3b, 0x49, 0x39, 0x47, 0x3b, 0x57, 0x7b, 0x51, 0x3b,
  0x00, 0x97, 0x24, 0x3b, 0x8d, 0x23, 0x24, 0x3b, 0xe4, 0x5d, 0x1e, 0x3b,
  0x41, 0xbe, 0x24, 0x3b, 0xde, 0x0a, 0x6b, 0x3b, 0x7f, 0x94, 0x22, 0x3b,
  0x3f, 0x3a, 0x44, 0x3b, 0x96, 0xc9, 0x15, 0x3b, 0x56, 0x27, 0x2f, 0x3b,
  0xd7, 0x99, 0x38, 0x3b, 0x74, 0x7a, 0x72, 0x3b, 0xd5, 0x05, 0x1f, 0x3b,
  0xc3, 0x48, 0x71, 0x3b, 0xcd, 0x84, 0x76, 0x3b, 0xbb, 0x43, 0x67, 0x3b,
  0x57, 0x8c, 0x6a, 0x3b, 0xe6, 0x6a, 0x3f, 0x3b, 0x07, 0x96, 0x42, 0x3b,
  0x13, 0x25, 0x46, 0x3b, 0x8e, 0x11, 0x18, 0x3b, 0xf2, 0x41, 0x3d, 0x3b,
  0xf5, 0x57, 0x63, 0x3b, 0x2a, 0xd6, 0x4b, 0x3b, 0xe0, 0x9c, 0x5a, 0x3b,
  0xc4, 0x4e, 0x3a, 0x3b, 0xcc, 0x3c, 0x1f, 0x3b, 0x10, 0xc9, 0x24, 0x3b,
  0xf8, 0x2f, 0x5f, 0x3b, 0xb2, 0x7b, 0x26, 0x3b, 0x58, 0xa2, 0x4c, 0x3b,
  0xb4, 0x06, 0x7d, 0x3b, 0x44, 0x73, 0xa9, 0x3b, 0x17, 0x97, 0x1b, 0x3b,
  0x8f, 0xd3, 0x6a, 0x3b, 0x83, 0xcc, 0x77, 0x3b, 0x07, 0xc9, 0x82, 0x3b,
  0x26, 0x78, 0x0d, 0x3b, 0x25, 0x70, 0x7a, 0x3b, 0xf6, 0xb5, 0x20, 0x3b,
  0x07, 0xb4, 0x1f, 0x3b, 0x22, 0xdf, 0x2e, 0x3b, 0x45, 0xce, 0x51, 0x3b,
  0x8b, 0xfd, 0x61, 0x3b, 0x5e, 0xe1, 0x28, 0x3b, 0xd2, 0xe1, 0x88, 0x3b,
  0x1b, 0x00, 0x00, 0x00, 0x73, 0x65, 0x71, 0x75, 0x65, 0x6e, 0x74, 0x69,
  0x61, 0x6c, 0x5f, 0x31, 0x2f, 0x64, 0x65, 0x6e, 0x73, 0x65, 0x5f, 0x31,
  0x2f, 0x4d, 0x61, 0x74, 0x4d, 0x75, 0x6c, 0x00, 0x02, 0x00, 0x00, 0x00,
  0x40, 0x00, 0x00, 0x00, 0x18, 0x00, 0x00, 0x00, 0x36, 0xf8, 0xff, 0xff,
  0x00, 0x00, 0x00, 0x01, 0x14, 0x00, 0x00, 0x00, 0x28, 0x03, 0x00, 0x00,
  0x06, 0x00, 0x00, 0x00, 0x00, 0x00, 0x00, 0x02, 0x58, 0x03, 0x00, 0x00,
  0x84, 0xf7, 0xff, 0xff, 0x08, 0x00, 0x00, 0x00, 0x0c, 0x02, 0x00, 0x00,
  0x40, 0x00, 0x00, 0x00, 0x00, 0x00, 0x00, 0x00, 0x00, 0x00, 0x00, 0x00,
  0x00, 0x00, 0x00, 0x00, 0x00, 0x00, 0x00, 0x00, 0x00, 0x00, 0x00, 0x00,
  0x00, 0x00, 0x00, 0x00, 0x00, 0x00, 0x00, 0x00, 0x00, 0x00, 0x00, 0x00,
  0x00, 0x00, 0x00, 0x00, 0x00, 0x00, 0x00, 0x00, 0x00, 0x00, 0x00, 0x00,
  0x00, 0x00, 0x00, 0x00, 0x00, 0x00, 0x00, 0x00, 0x00, 0x00, 0x00, 0x00,
  0x00, 0x00, 0x00, 0x00, 0x00, 0x00, 0x00, 0x00, 0x00, 0x00, 0x00, 0x00,
  0x00, 0x00, 0x00, 0x00, 0x00, 0x00, 0x00, 0x00, 0x00, 0x00, 0x00, 0x00,
  0x00, 0x00, 0x00, 0x00, 0x00, 0x00, 0x00, 0x00, 0x00, 0x00, 0x00, 0x00,
  0x00, 0x00, 0x00, 0x00, 0x00, 0x00, 0x00, 0x00, 0x00, 0x00, 0x00, 0x00,
  0x00, 0x00, 0x00, 0x00, 0x00, 0x00, 0x00, 0x00, 0x00, 0x00, 0x00, 0x00,
  0x00, 0x00, 0x00, 0x00, 0x00, 0x00, 0x00, 0x00, 0x00, 0x00, 0x00, 0x00,
  0x00, 0x00, 0x00, 0x00, 0x00, 0x00, 0x00, 0x00, 0x00, 0x00, 0x00, 0x00,
  0x00, 0x00, 0x00, 0x00, 0x00, 0x00, 0x00, 0x00, 0x00, 0x00, 0x00, 0x00,
  0x00, 0x00, 0x00, 0x00, 0x00, 0x00, 0x00, 0x00, 0x00, 0x00, 0x00, 0x00,
  0x00, 0x00, 0x00, 0x00, 0x00, 0x00, 0x00, 0x00, 0x00, 0x00, 0x00, 0x00,
  0x00, 0x00, 0x00, 0x00, 0x00, 0x00, 0x00, 0x00, 0x00, 0x00, 0x00, 0x00,
  0x00, 0x00, 0x00, 0x00, 0x00, 0x00, 0x00, 0x00, 0x00, 0x00, 0x00, 0x00,
  0x00, 0x00, 0x00, 0x00, 0x00, 0x00, 0x00, 0x00, 0x00, 0x00, 0x00, 0x00,
  0x00, 0x00, 0x00, 0x00, 0x00, 0x00, 0x00, 0x00, 0x00, 0x00, 0x00, 0x00,
  0x00, 0x00, 0x00, 0x00, 0x00, 0x00, 0x00, 0x00, 0x00, 0x00, 0x00, 0x00,
  0x00, 0x00, 0x00, 0x00, 0x00, 0x00, 0x00, 0x00, 0x00, 0x00, 0x00, 0x00,
  0x00, 0x00, 0x00, 0x00, 0x00, 0x00, 0x00, 0x00, 0x00, 0x00, 0x00, 0x00,
  0x00, 0x00, 0x00, 0x00, 0x00, 0x00, 0x00, 0x00, 0x00, 0x00, 0x00, 0x00,
  0x00, 0x00, 0x00, 0x00, 0x00, 0x00, 0x00, 0x00, 0x00, 0x00, 0x00, 0x00,
  0x00, 0x00, 0x00, 0x00, 0x00, 0x00, 0x00, 0x00, 0x00, 0x00, 0x00, 0x00,
  0x00, 0x00, 0x00, 0x00, 0x00, 0x00, 0x00, 0x00, 0x00, 0x00, 0x00, 0x00,
  0x00, 0x00, 0x00, 0x00, 0x00, 0x00, 0x00, 0x00, 0x00, 0x00, 0x00, 0x00,
  0x00, 0x00, 0x00, 0x00, 0x00, 0x00, 0x00, 0x00, 0x00, 0x00, 0x00, 0x00,
  0x00, 0x00, 0x00, 0x00, 0x00, 0x00, 0x00, 0x00, 0x00, 0x00, 0x00, 0x00,
  0x00, 0x00, 0x00, 0x00, 0x00, 0x00, 0x00, 0x00, 0x00, 0x00, 0x00, 0x00,
  0x00, 0x00, 0x00, 0x00, 0x00, 0x00, 0x00, 0x00, 0x00, 0x00, 0x00, 0x00,
  0x00, 0x00, 0x00, 0x00, 0x00, 0x00, 0x00, 0x00, 0x00, 0x00, 0x00, 0x00,
  0x00, 0x00, 0x00, 0x00, 0x00, 0x00, 0x00, 0x00, 0x00, 0x00, 0x00, 0x00,
  0x00, 0x00, 0x00, 0x00, 0x00, 0x00, 0x00, 0x00, 0x00, 0x00, 0x00, 0x00,
  0x00, 0x00, 0x00, 0x00, 0x00, 0x00, 0x00, 0x00, 0x00, 0x00, 0x00, 0x00,
  0x00, 0x00, 0x00, 0x00, 0x00, 0x00, 0x00, 0x00, 0x00, 0x00, 0x00, 0x00,
  0x00, 0x00, 0x00, 0x00, 0x00, 0x00, 0x00, 0x00, 0x00, 0x00, 0x00, 0x00,
  0x00, 0x00, 0x00, 0x00, 0x00, 0x00, 0x00, 0x00, 0x00, 0x00, 0x00, 0x00,
  0x00, 0x00, 0x00, 0x00, 0x00, 0x00, 0x00, 0x00, 0x00, 0x00, 0x00, 0x00,
  0x00, 0x00, 0x00, 0x00, 0x00, 0x00, 0x00, 0x00, 0x00, 0x00, 0x00, 0x00,
  0x00, 0x00, 0x00, 0x00, 0x00, 0x00, 0x00, 0x00, 0x00, 0x00, 0x00, 0x00,
  0x00, 0x00, 0x00, 0x00, 0x00, 0x00, 0x00, 0x00, 0x00, 0x00, 0x00, 0x00,
  0x00, 0x00, 0x00, 0x00, 0x00, 0x00, 0x00, 0x00, 0x00, 0x00, 0x00, 0x00,
  0x00, 0x00, 0x00, 0x00, 0x40, 0x00, 0x00, 0x00, 0x9d, 0x1b, 0x8a, 0x38,
  0xc2, 0x89, 0x93, 0x38, 0xec, 0x2a, 0x96, 0x38, 0x1d, 0x85, 0x67, 0x38,
  0xcc, 0xe5, 0x6c, 0x38, 0x4f, 0x68, 0x96, 0x38, 0x03, 0x70, 0x79, 0x38,
  0x54, 0x34, 0x97, 0x38, 0xed, 0xbd, 0x2e, 0x38, 0x07, 0x00, 0xad, 0x38,
  0x33, 0xf5, 0x8b, 0x38, 0xfe, 0x24, 0x55, 0x38, 0x1a, 0xa4, 0x82, 0x38,
  0x2b, 0xe8, 0xae, 0x38, 0xf7, 0x70, 0x82, 0x38, 0xee, 0x45, 0x7b, 0x38,
  0xe0, 0x22, 0x94, 0x38, 0xbb, 0x8e, 0x89, 0x38, 0xef, 0xa3, 0x90, 0x38,
  0xb2, 0x49, 0x63, 0x38, 0x44, 0xaa, 0x62, 0x38, 0xb7, 0xb1, 0x5a, 0x38,
  0xe7, 0x7f, 0x63, 0x38, 0x07, 0x4a, 0xa2, 0x38, 0x33, 0x83, 0x60, 0x38,
  0x1d, 0x7d, 0x87, 0x38, 0xc3, 0xd8, 0x4e, 0x38, 0x35, 0xe0, 0x71, 0x38,
  0x01, 0xec, 0x7e, 0x38, 0x64, 0x6c, 0xa7, 0x38, 0xa1, 0x99, 0x5b, 0x38,
  0x52, 0x99, 0xa6, 0x38, 0x93, 0x36, 0xaa, 0x38, 0x40, 0xae, 0x9f, 0x38,
  0xaa, 0xf2, 0xa1, 0x38, 0xe8, 0x2a, 0x84, 0x38, 0xf7, 0x5a, 0x86, 0x38,
  0x04, 0xd0, 0x88, 0x38, 0x2f, 0xff, 0x51, 0x38, 0x1d, 0xad, 0x82, 0x38,
  0x2d, 0xf9, 0x9c, 0x38, 0x16, 0xbe, 0x8c, 0x38, 0xed, 0xf1, 0x96, 0x38,
  0xaf, 0xa3, 0x80, 0x38, 0x88, 0xe5, 0x5b, 0x38, 0xd4, 0x8e, 0x63, 0x38,
  0x87, 0x1a, 0x9a, 0x38, 0x07, 0xe7, 0x65, 0x38, 0x11, 0x4b, 0x8d, 0x38,
  0xd3, 0xb4, 0xae, 0x38, 0xf2, 0xff, 0xe9, 0x38, 0x25, 0xdc, 0x56, 0x38,
  0xd7, 0x23, 0xa2, 0x38, 0xd9, 0x18, 0xab, 0x38, 0x1f, 0x9b, 0xb4, 0x38,
  0x25, 0x5c, 0x43, 0x38, 0x5a, 0xeb, 0xac, 0x38, 0x5f, 0xee, 0x5d, 0x38,
  0x2f, 0x8a, 0x5c, 0x38, 0x80, 0x7c, 0x71, 0x38, 0x32, 0xdd, 0x90, 0x38,
  0xfd, 0x09, 0x9c, 0x38, 0x78, 0x36, 0x69, 0x38, 0x79, 0x06, 0xbd, 0x38,
  0x36, 0x00, 0x00, 0x00, 0x73, 0x65, 0x71, 0x75, 0x65, 0x6e, 0x74, 0x69,
  0x61, 0x6c, 0x5f, 0x31, 0x2f, 0x64, 0x65, 0x6e, 0x73, 0x65, 0x5f, 0x31,
  0x2f, 0x52, 0x65, 0x6c, 0x75, 0x3b, 0x73, 0x65, 0x71, 0x75, 0x65, 0x6e,
  0x74, 0x69, 0x61, 0x6c, 0x5f, 0x31, 0x2f, 0x64, 0x65, 0x6e, 0x73, 0x65,
  0x5f, 0x31, 0x2f, 0x42, 0x69, 0x61, 0x73, 0x41, 0x64, 0x64, 0x00, 0x00,
  0x01, 0x00, 0x00, 0x00, 0x40, 0x00, 0x00, 0x00, 0xae, 0xfb, 0xff, 0xff,
  0x00, 0x00, 0x00, 0x01, 0x14, 0x00, 0x00, 0x00, 0xa4, 0x01, 0x00, 0x00,
  0x05, 0x00, 0x00, 0x00, 0x00, 0x00, 0x00, 0x09, 0xbc, 0x01, 0x00, 0x00,
  0xfc, 0xfa, 0xff, 0xff, 0x08, 0x00, 0x00, 0x00, 0x08, 0x01, 0x00, 0x00,
  0x20, 0x00, 0x00, 0x00, 0x00, 0x00, 0x00, 0x00, 0x00, 0x00, 0x00, 0x00,
  0x00, 0x00, 0x00, 0x00, 0x00, 0x00, 0x00, 0x00, 0x00, 0x00, 0x00, 0x00,
  0x00, 0x00, 0x00, 0x00, 0x00, 0x00, 0x00, 0x00, 0x00, 0x00, 0x00, 0x00,
  0x00, 0x00, 0x00, 0x00, 0x00, 0x00, 0x00, 0x00, 0x00, 0x00, 0x00, 0x00,
  0x00, 0x00, 0x00, 0x00, 0x00, 0x00, 0x00, 0x00, 0x00, 0x00, 0x00, 0x00,
  0x00, 0x00, 0x00, 0x00, 0x00, 0x00, 0x00, 0x00, 0x00, 0x00, 0x00, 0x00,
  0x00, 0x00, 0x00, 0x00, 0x00, 0x00, 0x00, 0x00, 0x00, 0x00, 0x00, 0x00,
  0x00, 0x00, 0x00, 0x00, 0x00, 0x00, 0x00, 0x00, 0x00, 0x00, 0x00, 0x00,
  0x00, 0x00, 0x00, 0x00, 0x00, 0x00, 0x00, 0x00, 0x00, 0x00, 0x00, 0x00,
  0x00, 0x00, 0x00, 0x00, 0x00, 0x00, 0x00, 0x00, 0x00, 0x00, 0x00, 0x00,
  0x00, 0x00, 0x00, 0x00, 0x00, 0x00, 0x00, 0x00, 0x00, 0x00, 0x00, 0x00,
  0x00, 0x00, 0x00, 0x00, 0x00, 0x00, 0x00, 0x00, 0x00, 0x00, 0x00, 0x00,
  0x00, 0x00, 0x00, 0x00, 0x00, 0x00, 0x00, 0x00, 0x00, 0x00, 0x00, 0x00,
  0x00, 0x00, 0x00, 0x00, 0x00, 0x00, 0x00, 0x00, 0x00, 0x00, 0x00, 0x00,
  0x00, 0x00, 0x00, 0x00, 0x00, 0x00, 0x00, 0x00, 0x00, 0x00, 0x00, 0x00,
  0x00, 0x00, 0x00, 0x00, 0x00, 0x00, 0x00, 0x00, 0x00, 0x00, 0x00, 0x00,
  0x00, 0x00, 0x00, 0x00, 0x00, 0x00, 0x00, 0x00, 0x00, 0x00, 0x00, 0x00,
  0x00, 0x00, 0x00, 0x00, 0x00, 0x00, 0x00, 0x00, 0x00, 0x00, 0x00, 0x00,
  0x00, 0x00, 0x00, 0x00, 0x00, 0x00, 0x00, 0x00, 0x00, 0x00, 0x00, 0x00,
  0x00, 0x00, 0x00, 0x00, 0x00, 0x00, 0x00, 0x00, 0x00, 0x00, 0x00, 0x00,
  0x00, 0x00, 0x00, 0x00, 0x00, 0x00, 0x00, 0x00, 0x00, 0x00, 0x00, 0x00,
  0x00, 0x00, 0x00, 0x00, 0x00, 0x00, 0x00, 0x00, 0x20, 0x00, 0x00, 0x00,
  0xc6, 0x94, 0x58, 0x3b, 0xf2, 0xcf, 0x4d, 0x3b, 0x23, 0x64, 0x4c, 0x3b,
  0x78, 0x28, 0x7e, 0x3b, 0x66, 0x0f, 0x4b, 0x3b, 0x09, 0xcf, 0x4c, 0x3b,
  0x72, 0x93, 0xbb, 0x3b, 0xc5, 0x22, 0x22, 0x3b, 0xdf, 0x6a, 0x5a, 0x3b,
  0x71, 0x98, 0x8a, 0x3b, 0x4e, 0xd2, 0x71, 0x3b, 0x99, 0x5f, 0x8c, 0x3b,
  0xe9, 0xb5, 0x59, 0x3b, 0x50, 0xe3, 0x4d, 0x3b, 0xf1, 0x20, 0x6c, 0x3b,
  0xae, 0x4c, 0x48, 0x3b, 0xac, 0x5b, 0x6d, 0x3b, 0x03, 0xb0, 0x6c, 0x3b,
  0xaf, 0x24, 0x96, 0x3b, 0x52, 0xf9, 0x86, 0x3b, 0xae, 0x7c, 0x8b, 0x3b,
  0x4a, 0x79, 0x84, 0x3b, 0x8d, 0x3d, 0xa6, 0x3b, 0xea, 0xeb, 0x60, 0x3b,
  0x8d, 0x2d, 0x5c, 0x3b, 0x38, 0xe9, 0x6f, 0x3b, 0x02, 0xea, 0x3c, 0x3b,
  0xe2, 0xe5, 0x81, 0x3b, 0xb4, 0x93, 0x7b, 0x3b, 0x4c, 0x67, 0x64, 0x3b,
  0x14, 0xd2, 0x3c, 0x3b, 0x98, 0xa9, 0x17, 0x3b, 0x1d, 0x00, 0x00, 0x00,
  0x73, 0x65, 0x71, 0x75, 0x65, 0x6e, 0x74, 0x69, 0x61, 0x6c, 0x5f, 0x31,
  0x2f, 0x64, 0x65, 0x6e, 0x73, 0x65, 0x5f, 0x31, 0x5f, 0x32, 0x2f, 0x4d,
  0x61, 0x74, 0x4d, 0x75, 0x6c, 0x00, 0x00, 0x00, 0x02, 0x00, 0x00, 0x00,
  0x20, 0x00, 0x00, 0x00, 0x40, 0x00, 0x00, 0x00, 0x8e, 0xfd, 0xff, 0xff,
  0x00, 0x00, 0x00, 0x01, 0x14, 0x00, 0x00, 0x00, 0xa4, 0x01, 0x00, 0x00,
  0x04, 0x00, 0x00, 0x00, 0x00, 0x00, 0x00, 0x02, 0xd8, 0x01, 0x00, 0x00,
  0xdc, 0xfc, 0xff, 0xff, 0x08, 0x00, 0x00, 0x00, 0x08, 0x01, 0x00, 0x00,
  0x20, 0x00, 0x00, 0x00, 0x00, 0x00, 0x00, 0x00, 0x00, 0x00, 0x00, 0x00,
  0x00, 0x00, 0x00, 0x00, 0x00, 0x00, 0x00, 0x00, 0x00, 0x00, 0x00, 0x00,
  0x00, 0x00, 0x00, 0x00, 0x00, 0x00, 0x00, 0x00, 0x00, 0x00, 0x00, 0x00,
  0x00, 0x00, 0x00, 0x00, 0x00, 0x00, 0x00, 0x00, 0x00, 0x00, 0x00, 0x00,
  0x00, 0x00, 0x00, 0x00, 0x00, 0x00, 0x00, 0x00, 0x00, 0x00, 0x00, 0x00,
  0x00, 0x00, 0x00, 0x00, 0x00, 0x00, 0x00, 0x00, 0x00, 0x00, 0x00, 0x00,
  0x00, 0x00, 0x00, 0x00, 0x00, 0x00, 0x00, 0x00, 0x00, 0x00, 0x00, 0x00,
  0x00, 0x00, 0x00, 0x00, 0x00, 0x00, 0x00, 0x00, 0x00, 0x00, 0x00, 0x00,
  0x00, 0x00, 0x00, 0x00, 0x00, 0x00, 0x00, 0x00, 0x00, 0x00, 0x00, 0x00,
  0x00, 0x00, 0x00, 0x00, 0x00, 0x00, 0x00, 0x00, 0x00, 0x00, 0x00, 0x00,
  0x00, 0x00, 0x00, 0x00, 0x00, 0x00, 0x00, 0x00, 0x00, 0x00, 0x00, 0x00,
  0x00, 0x00, 0x00, 0x00, 0x00, 0x00, 0x00, 0x00, 0x00, 0x00, 0x00, 0x00,
  0x00, 0x00, 0x00, 0x00, 0x00, 0x00, 0x00, 0x00, 0x00, 0x00, 0x00, 0x00,
  0x00, 0x00, 0x00, 0x00, 0x00, 0x00, 0x00, 0x00, 0x00, 0x00, 0x00, 0x00,
  0x00, 0x00, 0x00, 0x00, 0x00, 0x00, 0x00, 0x00, 0x00, 0x00, 0x00, 0x00,
  0x00, 0x00, 0x00, 0x00, 0x00, 0x00, 0x00, 0x00, 0x00, 0x00, 0x00, 0x00,
  0x00, 0x00, 0x00, 0x00, 0x00, 0x00, 0x00, 0x00, 0x00, 0x00, 0x00, 0x00,
  0x00, 0x00, 0x00, 0x00, 0x00, 0x00, 0x00, 0x00, 0x00, 0x00, 0x00, 0x00,
  0x00, 0x00, 0x00, 0x00, 0x00, 0x00, 0x00, 0x00, 0x00, 0x00, 0x00, 0x00,
  0x00, 0x00, 0x00, 0x00, 0x00, 0x00, 0x00, 0x00, 0x00, 0x00, 0x00, 0x00,
  0x00, 0x00, 0x00, 0x00, 0x00, 0x00, 0x00, 0x00, 0x00, 0x00, 0x00, 0x00,
  0x00, 0x00, 0x00, 0x00, 0x00, 0x00, 0x00, 0x00, 0x20, 0x00, 0x00, 0x00,
  0xcc, 0xca, 0x37, 0x38, 0x56, 0xa7, 0x2e, 0x38, 0x9b, 0x72, 0x2d, 0x38,
  0x22, 0xae, 0x57, 0x38, 0x74, 0x51, 0x2c, 0x38, 0x52, 0xcd, 0x2d, 0x38,
  0x9d, 0x2d, 0x9f, 0x38, 0xea, 0x96, 0x09, 0x38, 0xb9, 0x59, 0x39, 0x38,
  0xde, 0x39, 0x6b, 0x38, 0x18, 0x36, 0x4d, 0x38, 0x5e, 0x3e, 0x6e, 0x38,
  0x29, 0xc0, 0x38, 0x38, 0xc5, 0xb7, 0x2e, 0x38, 0x5e, 0x61, 0x48, 0x38,
  0xba, 0xf9, 0x29, 0x38, 0x73, 0x6c, 0x49, 0x38, 0xc7, 0xda, 0x48, 0x38,
  0x3e, 0xd3, 0x7e, 0x38, 0x59, 0x14, 0x65, 0x38, 0x3d, 0xbd, 0x6c, 0x38,
  0x14, 0xd6, 0x60, 0x38, 0x9e, 0x12, 0x8d, 0x38, 0xb1, 0xde, 0x3e, 0x38,
  0x2d, 0xd8, 0x3a, 0x38, 0x0d, 0x97, 0x4b, 0x38, 0x51, 0x50, 0x20, 0x38,
  0xed, 0x76, 0x5c, 0x38, 0x67, 0x7d, 0x55, 0x38, 0x20, 0xd3, 0x41, 0x38,
  0x02, 0x3c, 0x20, 0x38, 0xa7, 0xb3, 0x00, 0x38, 0x3a, 0x00, 0x00, 0x00,
  0x73, 0x65, 0x71, 0x75, 0x65, 0x6e, 0x74, 0x69, 0x61, 0x6c, 0x5f, 0x31,
  0x2f, 0x64, 0x65, 0x6e, 0x73, 0x65, 0x5f, 0x31, 0x5f, 0x32, 0x2f, 0x52,
  0x65, 0x6c, 0x75, 0x3b, 0x73, 0x65, 0x71, 0x75, 0x65, 0x6e, 0x74, 0x69,
  0x61, 0x6c, 0x5f, 0x31, 0x2f, 0x64, 0x65, 0x6e, 0x73, 0x65, 0x5f, 0x31,
  0x5f, 0x32, 0x2f, 0x42, 0x69, 0x61, 0x73, 0x41, 0x64, 0x64, 0x00, 0x00,
  0x01, 0x00, 0x00, 0x00, 0x20, 0x00, 0x00, 0x00, 0x86, 0xff, 0xff, 0xff,
  0x00, 0x00, 0x00, 0x01, 0x14, 0x00, 0x00, 0x00, 0x3c, 0x00, 0x00, 0x00,
  0x03, 0x00, 0x00, 0x00, 0x00, 0x00, 0x00, 0x09, 0x54, 0x00, 0x00, 0x00,
  0xd4, 0xfe, 0xff, 0xff, 0x08, 0x00, 0x00, 0x00, 0x18, 0x00, 0x00, 0x00,
  0x02, 0x00, 0x00, 0x00, 0x00, 0x00, 0x00, 0x00, 0x00, 0x00, 0x00, 0x00,
  0x00, 0x00, 0x00, 0x00, 0x00, 0x00, 0x00, 0x00, 0x02, 0x00, 0x00, 0x00,
  0x86, 0x33, 0xd7, 0x3b, 0x8c, 0x32, 0xd2, 0x3b, 0x1d, 0x00, 0x00, 0x00,
  0x73, 0x65, 0x71, 0x75, 0x65, 0x6e, 0x74, 0x69, 0x61, 0x6c, 0x5f, 0x31,
  0x2f, 0x64, 0x65, 0x6e, 0x73, 0x65, 0x5f, 0x32, 0x5f, 0x31, 0x2f, 0x4d,
  0x61, 0x74, 0x4d, 0x75, 0x6c, 0x00, 0x00, 0x00, 0x02, 0x00, 0x00, 0x00,
  0x02, 0x00, 0x00, 0x00, 0x20, 0x00, 0x00, 0x00, 0x00, 0x00, 0x16, 0x00,
  0x1c, 0x00, 0x18, 0x00, 0x17, 0x00, 0x10, 0x00, 0x0c, 0x00, 0x08, 0x00,
  0x00, 0x00, 0x00, 0x00, 0x00, 0x00, 0x07, 0x00, 0x16, 0x00, 0x00, 0x00,
  0x00, 0x00, 0x00, 0x01, 0x14, 0x00, 0x00, 0x00, 0x3c, 0x00, 0x00, 0x00,
  0x02, 0x00, 0x00, 0x00, 0x00, 0x00, 0x00, 0x02, 0x54, 0x00, 0x00, 0x00,
  0x64, 0xff, 0xff, 0xff, 0x08, 0x00, 0x00, 0x00, 0x18, 0x00, 0x00, 0x00,
  0x02, 0x00, 0x00, 0x00, 0x00, 0x00, 0x00, 0x00, 0x00, 0x00, 0x00, 0x00,
  0x00, 0x00, 0x00, 0x00, 0x00, 0x00, 0x00, 0x00, 0x02, 0x00, 0x00, 0x00,
  0x70, 0x4b, 0xa6, 0x38, 0x93, 0x6d, 0xa2, 0x38, 0x1e, 0x00, 0x00, 0x00,
  0x73, 0x65, 0x71, 0x75, 0x65, 0x6e, 0x74, 0x69, 0x61, 0x6c, 0x5f, 0x31,
  0x2f, 0x64, 0x65, 0x6e, 0x73, 0x65, 0x5f, 0x32, 0x5f, 0x31, 0x2f, 0x42,
  0x69, 0x61, 0x73, 0x41, 0x64, 0x64, 0x00, 0x00, 0x01, 0x00, 0x00, 0x00,
  0x02, 0x00, 0x00, 0x00, 0x00, 0x00, 0x16, 0x00, 0x20, 0x00, 0x1c, 0x00,
  0x1b, 0x00, 0x14, 0x00, 0x10, 0x00, 0x0c, 0x00, 0x00, 0x00, 0x00, 0x00,
  0x08, 0x00, 0x07, 0x00, 0x16, 0x00, 0x00, 0x00, 0x00, 0x00, 0x00, 0x01,
  0x18, 0x00, 0x00, 0x00, 0x2c, 0x00, 0x00, 0x00, 0x48, 0x00, 0x00, 0x00,
  0x01, 0x00, 0x00, 0x00, 0x00, 0x00, 0x00, 0x09, 0x60, 0x00, 0x00, 0x00,
  0x02, 0x00, 0x00, 0x00, 0xff, 0xff, 0xff, 0xff, 0x18, 0x00, 0x00, 0x00,
  0x0c, 0x00, 0x0c, 0x00, 0x00, 0x00, 0x00, 0x00, 0x08, 0x00, 0x04, 0x00,
  0x0c, 0x00, 0x00, 0x00, 0x08, 0x00, 0x00, 0x00, 0x10, 0x00, 0x00, 0x00,
  0x01, 0x00, 0x00, 0x00, 0xf4, 0xff, 0xff, 0xff, 0xff, 0xff, 0xff, 0xff,
  0x01, 0x00, 0x00, 0x00, 0x7a, 0xc2, 0xb0, 0x3c, 0x1e, 0x00, 0x00, 0x00,
  0x73, 0x65, 0x72, 0x76, 0x69, 0x6e, 0x67, 0x5f, 0x64, 0x65, 0x66, 0x61,
  0x75, 0x6c, 0x74, 0x5f, 0x6b, 0x65, 0x72, 0x61, 0x73, 0x5f, 0x74, 0x65,
  0x6e, 0x73, 0x6f, 0x72, 0x3a, 0x30, 0x00, 0x00, 0x02, 0x00, 0x00, 0x00,
  0x01, 0x00, 0x00, 0x00, 0x18, 0x00, 0x00, 0x00, 0x02, 0x00, 0x00, 0x00,
  0x24, 0x00, 0x00, 0x00, 0x04, 0x00, 0x00, 0x00, 0xf0, 0xff, 0xff, 0xff,
  0x19, 0x00, 0x00, 0x00, 0x02, 0x00, 0x00, 0x00, 0x00, 0x00, 0x00, 0x19,
  0x0c, 0x00, 0x10, 0x00, 0x0f, 0x00, 0x00, 0x00, 0x08, 0x00, 0x04, 0x00,
  0x0c, 0x00, 0x00, 0x00, 0x09, 0x00, 0x00, 0x00, 0x04, 0x00, 0x00, 0x00,
  0x00, 0x00, 0x00, 0x09
};
unsigned int g_quantized_model_len = 8896;
